[PAD]
[UNK]
[CLS]
[SEP]
[MASK]
!
"
#
$
%
&
'
(
)
*
+
,
-
/
0
1
2
3
4
5
6
7
8
9
:
;
<
=
>
?
@
[
\
]
^
_
`
a
b
c
d
e
f
g
h
i
j
k
l
m
n
o
p
q
r
s
t
u
v
w
x
y
z
{
|
}
~
¡
¢
£
¤
¥
¦
§
¨
©
ª
«
¬
®
¯
°
±
²
³
´
µ
¶
·
¸
¹
º
»
¼
½
¾
¿
×
ß
ð
÷
ø
þ
đ
ħ
ı
ĳ
ĸ
ł
ſ
ƀ
ƍ
ƒ
ȝ
ȥ
ȼ
ɛ
ɣ
ʃ
ʈ
ʎ
ʘ
ʹ
ʻ
ʼ
˂
˃
ˆ
ˇ
ˈ
ˉ
ˊ
˗
˘
˙
˚
˜
˝
ͱ
ͳ
͵
ͻ
ͼ
΄
α
β
γ
δ
ε
ζ
η
θ
ι
κ
λ
μ
ν
ξ
ο
π
ρ
ς
σ
τ
υ
φ
χ
ψ
ω
ϑ
ϒ
ϕ
ϖ
ϩ
ϫ
ϭ
ϯ
ϰ
ϱ
ϲ
ϳ
ϵ
ϸ
а
б
в
г
д
е
ж
з
и
к
л
м
н
о
п
р
с
т
у
ф
х
ц
ч
ш
щ
ы
ь
ю
я
є
і
ј
љ
њ
ѧ
ѿ
ҁ
҂
ҳ
ӎ
ӷ
լ
յ
ն
շ
տ
ր
ס
ע
ץ
׳
؇
؉
؊
؋
؍
؎
ؠ
ء
ا
د
ز
ف
ق
ن
ه
و
١
٤
٭
۰
ܧ
ܭ
ݐ
ޒ
ߡ
ࣙ
ଏ
ଝ
ଵ
ଶ
ସ
େ
ഛ
ജ
ഠ
െ
ൗ
ෂ
ᄀ
ᄂ
ᄃ
ᄄ
ᄅ
ᄆ
ᄇ
ᄉ
ᄋ
ᄌ
ᄎ
ᄏ
ᄐ
ᄑ
ᄒ
ᅡ
ᅢ
ᅣ
ᅥ
ᅦ
ᅧ
ᅨ
ᅩ
ᅪ
ᅫ
ᅬ
ᅭ
ᅮ
ᅯ
ᅱ
ᅲ
ᅳ
ᅴ
ᅵ
ᆨ
ᆫ
ᆭ
ᆯ
ᆷ
ᆸ
ᆹ
ᆻ
ᆼ
ᆾ
ᇀ
ሺ
ሻ
ជ
ប
᭧
᭪
ᮊ
ᴪ
ᵒ
‖
‗
‚
†
‡
•
․
…
‧
‰
′
″
‹
›
‾
⁄
⁎
⁰
⁴
⁵
⁶
⁷
⁸
⁹
⁺
⁻
₂
₃
₩
€
⃝
℃
ℎ
ℏ
ℑ
ℓ
№
℘
ℜ
ℝ
™
ℵ
ℶ
ℷ
ℼ
⅐
⅔
ⅱ
ⅲ
←
↑
→
↓
↔
↵
⇄
⇆
⇋
⇌
⇒
⇠
⇡
⇤
∀
∂
∃
∅
∆
∇
∈
∋
∑
−
∓
∕
∘
√
∝
∞
∠
∥
∧
∨
∩
∪
∬
∶
∼
∿
≀
≃
≅
≈
≡
≤
≥
≦
≧
≪
≫
≲
≳
⊂
⊃
⊆
⊇
⊕
⊗
⊘
⊙
⊥
⋅
⋆
⋊
⋮
⋯
⋱
⌈
⌉
⌫
⌬
⌰
⌳
⌸
⌺
⌽
⌿
⍀
⍜
⍣
⎯
␣
␤
␥
␦
⑀
⑄
①
②
③
ⓡ
─
━
┴
═
■
□
▪
△
►
○
♀
♂
♦
♯
✩
➔
➞
⟨
⟩
⟷
⧧
⩽
⩾
⸳
、
。
〈
〉
《
》
【
】
あ
い
お
か
け
し
た
っ
て
に
ま
や
よ
る
を
タ
ム
ー
㎍
㎜
㎡
㎤
㎥
㏓
一
三
东
也
井
介
作
例
価
値
側
农
医
合
哲
四
土
圧
型
大
如
宝
宮
家
局
属
形
心
忆
技
放
数
料
新
時
曲
木
村
条
析
柏
毛
水
池
泽
流
涛
温
点
理
用
疗
管
縮
群
胡
術
袁
角
解
評
貯
貴
資
質
身
部
鄄
金
锦
面
ꞌ
ﮕ
ﺎ
ﺑ
ﺘ
ﺣ
ﺪ
ﺮ
ﺲ
ﺳ
ﺸ
ﻔ
ﻛ
ﻣ
ﻤ
ﻦ
ﻧ
ﻨ
ﻬ
ﻲ
ﻳ
ﻴ
ﻼ
％
＆
（
）
＊
＋
，
．
：
；
＜
＝
＞
ｍ
～
･
##4
##e
##o
##v
##i
##c
##k
##u
##a
##r
##n
##t
##0
##3
##9
##m
##g
##s
##ϭ
##1
##j
##d
##f
##l
##y
##p
##h
##b
##6
##5
##8
##−
##x
##w
##z
##ј
##2
##7
##q
##ϯ
##°
##π
##γ
##ϫ
##®
##º
##ω
##≥
##×
##→
##р
##¤
##℃
##σ
##µ
##ν
##ˆ
##¥
##´
##λ
##ı
##α
##⌬
##ϩ
##þ
##њ
##е
##в
##а
##г
##м
##и
##£
##о
##д
##ф
##і
##к
##ц
##ю
##≈
##²
##¨
##¢
##∆
##љ
##ᅢ
##±
##ð
##δ
##т
##ь
##∼
##↓
##ℓ
##³
##˚
##€
##φ
##∞
##ø
##√
##τ
##ᅵ
##ᆻ
##ᄋ
##ᅥ
##؋
##˘
##⅐
##ł
##ͻ
##¹
##¸
##␤
##ϕ
##н
##ж
##я
##≤
##с
##ͱ
##ζ
##ϵ
##ρ
##™
##ᆷ
##ᅳ
##ᆯ
##ϱ
##л
##з
##ε
##ς
##⋅
##⌫
##ᅡ
##ᆼ
##ᄃ
##ᄌ
##ᆨ
##ᄅ
##ᅩ
##˙
##ψ
##∅
##┴
##đ
##շ
##˝
##ͼ
##η
##∕
##∈
##ᄆ
##ᄐ
##ᅴ
##β
##χ
##θ
##¦
##ß
##ᅯ
##у
##ᄒ
##↵
##ч
##μ
##¯
##␥
##␦
##↔
##ӎ
##ϸ
##␣
##ᄀ
##؇
##÷
##ª
##∂
##ᅮ
##ᄉ
##⁵
##ˇ
##⊗
##⍀
##ᅧ
##ᆫ
##↑
##ᄂ
##¼
##ᅭ
##∪
##п
##≡
##⎯
##ѿ
##˜
##⁰
##⌽
##⁺
##κ
##б
##⑀
##∇
##ѧ
##ー
##た
##х
##ᅦ
##ប
##¬
##ሻ
##ϳ
##ｍ
##ﻳ
##ﺮ
##ا
##ن
##≃
##ᄎ
##ᅱ
##ӷ
##ץ
##⌿
##←
##ഛ
##ʼ
##ᅪ
##ξ
##ᆸ
##⊙
##～
##ᆭ
##ﺎ
##ه
##⊥
##⊇
##△
##ᅣ
##ᅬ
##＋
##½
##ˊ
##よ
##っ
##て
##ᄏ
##ſ
##⌳
##⁶
##∝
##ᆹ
##տ
##ᅲ
##ᄇ
##©
##ム
##ĳ
##ଏ
##ᆾ
##ൗ
##ᄑ
##ˈ
##⁄
##щ
##ʹ
##ʈ
##¾
##お
##け
##る
##ш
##ﺸ
##ﻬ
##ﺪ
##΄
##⁹
##ˉ
##ι
##ο
##٤
##ᅨ
##ᅫ
##ϲ
##㎜
##ы
##⁻
##∶
##ﺳ
##ﻼ
##ﻣ
##ﻲ
##∓
##₂
##⁴
##ﺣ
##ﺘ
##ق
##㏓
##⋯
##ϑ
##υ
##ꞌ
##∧
##⋆
##㎤
##＜
##⇡
##⁷
##ﻤ
##ﻦ
##լ
##ز
##د
##ע
##∀
##➔
##ⅱ
##ħ
##⁸
##ℏ
##ϰ
##յ
##₃
##あ
##ᇀ
##و
##ﻴ
##ɣ
##⊘
##ƒ
##ء
##ﻨ
##ﻔ
##ﻧ
##ﺲ
##ﮕ
##＝
##є
##≧
th
##er
##on
##ti
the
##es
##en
##in
##al
##ed
in
##or
of
##nd
##tion
##at
##an
##ar
##ro
##ic
and
##it
##ec
##re
##as
##ing
##el
##is
to
##ent
##ation
##tr
##le
##ac
##ol
##om
##ur
##et
##ul
is
en
##uc
con
##os
##ly
pro
for
##ve
##ow
##em
##erg
##ig
##us
##id
##tic
##im
##ter
energ
##il
##od
energy
##ith
as
be
ex
st
##ot
##um
with
##ce
on
re
##ts
##ity
an
##am
al
##ir
##si
##st
##ab
##per
##ff
##ver
that
wh
are
##ate
com
##tin
by
##ut
res
##ad
##ag
##th
de
##ess
##ect
##igh
##se
ch
##ure
ac
at
##pl
##ain
##ical
##ated
##ting
or
##qu
##oc
sp
##ay
##ere
##ment
##ou
tr
##ant
this
we
##op
##rom
comp
su
ph
##iz
pr
##ud
##ations
di
##ib
##duc
##ap
dis
##vel
sh
##tive
im
sy
##ies
##og
##ge
mod
from
el
##ave
str
##ich
ne
##ectr
us
##ell
##ch
par
##if
##ons
##and
##erm
high
inc
##ore
##ial
ap
20
eff
which
cons
##ers
inter
##ort
can
##tions
##un
##bs
ad
met
##ine
##ous
##ence
##able
##orm
##act
##stem
imp
have
##ase
tran
int
##sion
system
has
##all
le
co
##ance
qu
it
##ys
##ri
was
##ak
se
pl
been
sc
##ech
per
##tial
##av
##uch
##ater
##ign
electr
stud
model
rel
##rou
un
me
##ens
##form
##end
diff
rec
##tical
##etw
##uct
fl
##ost
##ties
these
trans
gen
et
##tiv
##our
##ip
##olog
##ong
##ents
##est
##ular
##ble
##ased
ev
##di
##ue
##cess
##ary
##te
##ates
such
##enc
##ace
##ved
##ower
cl
resul
##ari
sol
he
##eld
##ass
##ors
##tain
##ion
produc
##ility
##age
##ome
incre
##ight
##ield
##ach
##ide
des
app
em
##ution
det
acc
##gh
10
##so
op
##ating
19
gr
##ph
were
##ork
##ill
gener
##tim
also
differ
reg
##ind
##pos
##ear
##oth
##ond
show
##ati
not
##agn
##ature
##res
sim
tw
##ential
##ific
##oll
am
tim
partic
sur
man
##ard
process
meth
##een
##ound
##ally
##yp
und
##ied
##atter
all
##ici
betw
between
car
ind
##ative
pres
ass
##ory
ob
##adi
200
##unc
form
inv
low
one
cont
red
field
##arge
struct
their
two
sign
##ther
##ew
power
there
##etic
how
##yn
more
ab
anal
##ist
using
##velop
used
##ple
##ics
##ures
##ely
##plic
##ack
method
its
tem
vari
##trib
ar
##ces
dec
non
under
##port
##ects
exper
bi
develop
##ption
##ros
li
##pend
cor
##ization
##ism
##ection
##ast
based
##ose
##les
obs
##ized
##ree
##ange
##ite
cell
##gr
time
obser
##aus
results
##ob
func
##echn
##ang
##ency
pos
##action
electron
experim
##fer
##oun
techn
meas
##aterial
appro
study
over
phot
temper
magn
hy
mic
201
reduc
dat
##ments
exp
##row
##ia
##der
num
material
than
##ted
##ability
##ood
##tional
resp
##ulation
equ
##ynam
pre
prov
##iv
fr
##ole
##ever
systems
##out
##ten
sm
##ath
surf
es
import
##ently
gl
data
proper
however
pot
##lud
##echan
pol
different
##rol
##ected
char
bec
well
pa
abs
most
##ark
##uld
##fl
other
cr
##acter
cur
mechan
but
spec
cal
##tivity
##pt
scal
##utr
perform
effici
##ail
into
potential
typ
level
##uring
##ider
no
use
sour
large
val
so
due
##ile
##ensity
both
##eng
##ological
therm
sub
##vely
fe
compar
##try
control
phys
conc
state
temperature
radi
##rough
applic
includ
##til
##ases
##ber
present
ag
new
coll
up
properties
surface
##ene
ver
may
##ym
ma
mol
##ective
##ational
##ensi
##als
where
important
sup
consider
comm
requ
##oci
##gen
dem
comple
##ays
loc
##ition
through
ins
depend
mass
##rop
disc
##ov
##tig
##round
##ize
order
dir
##vi
##vir
spectr
##ucle
##viron
##ev
when
nan
out
signific
##ane
environ
prote
mul
experiment
##own
fact
##ysis
##ined
ox
many
main
calc
super
po
lim
##amet
structure
cap
##ms
consum
grow
hyd
bl
##arg
##ission
during
condi
nucle
molec
##ding
only
##tif
our
character
flu
elect
significant
dynam
fir
rep
11
##ities
inves
protein
density
investig
propos
##ake
curr
exc
##istic
##ology
##iqu
work
##ium
##ual
##her
quant
12
distrib
##over
sam
proble
production
##reat
quantum
some
##entr
min
##anc
fu
##ub
##vic
##ise
they
##xim
##ause
sec
##rel
phase
br
environment
##ven
##ement
kn
##ural
##yl
##abol
fre
199
##edic
first
##atic
##me
##br
will
paramet
term
theory
effects
##con
##ep
measure
impro
limit
##ically
##one
id
approach
effect
paper
desc
expl
##ues
##ish
water
oper
determ
##sible
lead
##cop
small
##ength
##gan
##ions
##ough
##tract
addi
analysis
dim
studies
exam
magnetic
multi
materials
obtain
##ann
##par
sever
number
mo
range
rem
models
##old
metabol
design
##fore
transi
found
##ix
##cc
associ
def
sel
##formation
sing
hydro
##emical
##ulations
##ke
carb
function
##etwork
##avi
network
long
##00
##ie
while
##onic
##ust
##osph
##actions
##urb
##oupl
##ult
states
light
##ma
cos
strong
ray
##tric
mon
mechanism
##iver
prot
af
observed
predic
very
development
##asing
13
##ides
##earch
research
sug
beh
neutr
plas
dr
higher
##aph
15
##oss
##its
performance
##yc
optim
ser
year
##ets
fin
gas
applications
##och
##ines
##olution
##ox
efficiency
coupl
fur
##inear
constr
##ps
conditions
##int
##ock
devic
##ould
complex
##ension
because
thermal
vol
conf
observ
rate
electric
several
proposed
increase
##ade
frequ
##ator
##onstr
lo
##rib
syn
spin
single
bu
particular
consumption
scale
##yst
##sive
##tern
##roscop
flow
current
electro
induc
##ants
##ire
including
##tit
med
sin
##por
##ross
chang
local
##tal
infl
##roduc
ion
occ
bod
comb
##aw
cells
##ulated
recent
atom
processes
solar
wave
av
methods
three
14
techniqu
behavi
associated
excit
organ
micro
within
sch
##ans
experimental
##ive
describ
compared
need
various
dom
##ids
free
##ality
space
therefore
heat
underst
star
##ves
growth
thus
sens
band
type
increased
ext
##ful
sugg
source
report
##utions
wind
matter
##ector
##ving
##ax
compon
carbon
##ex
problem
about
requir
body
increasing
##entif
##ness
sources
##esis
##tively
ir
##atures
role
##ord
compos
##ured
transport
distribution
##ination
ear
respon
lay
grou
known
interaction
mem
inf
conduc
shown
after
allow
find
optical
analy
total
do
bound
##ian
physical
contrib
ge
direct
##hib
inte
decre
indic
adv
##dr
ren
could
buil
##ount
addition
pe
demonstr
provide
prom
sym
dimension
emission
obtained
las
general
sl
levels
transfer
absor
lif
##ences
16
cosm
information
ach
parameters
der
fuel
lower
##ings
particle
stand
##ft
case
##ages
##led
particles
conver
years
pul
aff
##ns
inst
estim
path
real
##iss
fil
subs
stor
##are
related
since
##ication
##ression
second
each
##sc
gre
food
correl
effective
integr
if
chemical
ele
beam
giv
##ains
activ
bas
studied
abstract
changes
top
concentr
fat
near
cost
transition
dri
##ward
##oy
like
phen
##ute
region
activity
occur
possible
dynamics
##usion
mom
loss
##omen
sus
understand
##jor
result
invol
treat
quan
major
size
interactions
recently
radiation
ini
indus
##eler
sem
##iod
minim
##cer
##atal
##ollow
generation
back
class
hum
##tically
identif
18
had
##ld
specific
devices
molecular
ke
among
##ules
enh
ul
glob
discus
theore
##ogen
##na
##ectively
end
frequency
##sequ
set
improve
##sions
bre
aut
follow
then
17
prec
even
cyc
##ators
avail
##ffici
numer
scatter
change
here
acceler
##irc
part
experiments
contin
prob
foc
physics
structures
press
period
##ters
##pr
cryst
measurements
har
standard
##ually
univer
formation
plasma
mat
##ning
##vious
developed
considered
##ick
##ty
moment
spectrum
##ient
point
demand
##ances
diet
require
sw
grav
resour
##alu
appl
laser
characteristic
wor
util
dimensional
simil
##ising
spect
dist
achie
life
coun
approxim
##eed
const
vi
prim
##itud
##uted
er
environmental
capac
##eter
example
##aking
##ately
focus
##atory
reson
cri
##gor
renew
evalu
dark
same
gal
##inc
larg
energies
influ
pop
similar
synth
stress
bel
##alth
transm
econ
introduc
##ision
symme
weight
econom
reported
discuss
repres
accur
cross
##au
global
signal
##ink
ful
linear
building
value
rati
nat
obj
circ
caus
terms
##de
sit
##ety
##atis
##ins
solution
ed
ang
##resp
behavior
those
induced
commun
further
##put
del
##ino
electronic
##ton
##af
metal
efficient
fields
##ron
contain
##electr
##till
##astic
targ
##ples
charge
nutr
storage
rece
being
interest
lat
much
maxim
##alled
common
##ibr
any
##atively
##ived
previous
chall
wid
health
critical
##respond
correspond
##roscopy
response
theoretical
world
##ape
nuclear
sensi
factor
##icon
cent
##oph
measured
pressure
investigated
short
renewable
off
neg
phenomen
scattering
##lish
tiss
treatment
clus
feed
functional
##though
layer
##ode
less
although
##ible
load
##ially
applied
mix
##vid
##ern
##ormal
oxid
factors
reduction
##trac
without
acid
##cept
obes
evolution
198
##verse
flux
coupling
indi
quality
technology
via
impact
air
polar
##tice
significantly
suggest
turb
active
##aces
area
test
anti
cle
few
given
##view
electrons
##ling
graph
##ental
dam
algor
algorith
ve
reaction
##art
##ug
##red
##idence
values
##ified
constant
##ether
bind
reduced
continu
##up
produced
orig
hel
25
intern
key
##ulate
eng
##ok
ii
altern
##esting
##els
should
vis
gap
##tries
see
30
species
mean
understanding
ec
mechanical
##izing
intake
carri
bro
##bit
21
##yt
suc
##anced
self
metabolic
conven
##ited
ferm
##ateg
equation
group
##odes
##ove
ste
provid
constrain
col
ultr
##ier
##ploy
presence
application
membr
fram
##ease
##oh
atten
metabolism
dependent
techniques
##aves
hydrogen
tun
##ily
rap
hyp
##oid
##ping
highly
liqu
cm
polym
##xt
required
##ativ
origin
momentum
reduce
great
pati
available
functions
consist
mit
ratio
often
would
##essed
human
natural
land
chann
##pec
separ
four
##umin
progr
assum
##med
##truct
lit
gluc
bal
##uration
far
##ores
simulations
##ice
##inetic
##oles
analyz
aver
yield
strateg
catal
cre
##eti
biom
initial
components
ref
rot
sustain
##erc
still
##icult
##avel
##ply
presented
molecules
ess
##tor
respectively
fac
nec
lip
bet
ground
##ygen
prop
##agnetic
##aging
##sib
parameter
##otic
kinetic
prof
contr
##akes
batter
##ying
good
problems
##ks
mechanisms
vel
##itor
multiple
iss
rapid
limited
aim
est
review
them
##therm
strength
interf
pur
##roph
##ologies
##amm
fut
made
volt
way
called
detail
calculations
##ject
absorption
reve
##ense
exhib
##ither
individ
##ables
cer
along
showed
insul
characteristics
oxygen
future
provides
##ior
wide
##ture
sn
bar
##ogr
sil
##ochond
##issions
mark
##ner
spa
binding
fer
fig
observations
peak
##onal
conn
##arch
##ds
schem
exist
centr
spatial
target
performed
100
fund
##ists
become
fib
##abil
mitochond
hand
consequ
##itive
solutions
resources
sk
##itude
hard
exten
##ording
24
##eric
capacity
22
resist
##omes
##ably
##ground
above
solid
##turb
nature
##ule
##lement
phosph
simple
bio
stability
proteins
essential
##und
simulation
spectral
##ests
ro
##usc
length
##isting
##orph
appear
determined
equations
technique
conventional
##aneous
##sh
substr
obesity
nonl
clim
green
geome
pair
electrical
networks
resulting
expected
nm
corr
espec
numerical
go
##ibri
support
especially
##fficient
amount
domin
oil
ris
universe
electricity
refer
extr
line
liquid
background
fundam
volum
##ilibri
mode
##ification
##ablish
weak
##hic
##ero
sensor
speed
intr
##ale
represent
photon
glucose
times
##erv
patients
##lus
symmetry
establish
manag
described
either
patter
##az
##acy
play
adip
extend
bul
prac
tissue
around
##odynam
comput
necess
features
voltage
relations
advant
theor
##otrop
##isions
##ift
rates
step
##zym
sci
atm
investigate
##trial
emissions
ampl
##ather
supercon
spectra
##ilibrium
##ining
##ching
according
increases
medium
component
widely
##uctu
princ
structural
fluctu
##ained
##epend
perturb
charg
down
##he
##romagnetic
23
engine
##ime
osc
##ections
moreover
section
influence
galax
atmosph
finite
attention
bond
waves
##cd
pathw
ep
corresponding
include
##val
act
central
##vers
50
force
##avy
##ced
superconduc
##ler
infr
membrane
veloc
##gre
compound
radio
##artic
##ription
resolution
supply
dep
reveal
black
##ograph
now
##aving
leads
##electric
##uction
organic
conversion
lattice
oscill
##ae
fundamental
velocity
success
tool
inj
leading
quas
types
content
challeng
##urn
expression
tra
primary
possib
##sip
##cs
##igg
musc
normal
exch
nonlinear
volume
furtherm
furthermore
##read
demonstrated
puls
disper
temperatures
##ric
emerg
average
independ
cool
operation
resid
photo
heavy
better
derived
statis
config
arr
dynamic
dissip
quark
−1
produce
algorithm
##bed
plant
transmission
condition
fluid
must
generated
evidence
coupled
proton
##ework
eu
concentration
##air
regions
larger
framework
att
determine
alternative
spectroscopy
early
##hip
negative
lab
maximum
refl
nit
management
implement
graphene
##other
##hold
open
broad
##position
atoms
reach
core
ax
waste
employ
dependence
hole
novel
calculated
decay
zero
##ogene
enzym
##ival
bulk
##rix
detection
ann
technologies
toward
##ct
usually
strongly
##ymme
climate
link
composition
dop
il
##asc
ide
ions
shows
ur
economic
##ouse
##cence
assess
grid
vac
products
##iconduc
##time
wi
relative
##ars
bene
neutron
##lying
heating
si
matrix
##ering
semiconduc
##yr
expan
soft
cycle
dou
cosmic
wavel
mainly
optimal
resistance
correlation
gu
mob
pub
##11
##osis
motion
vehic
##ites
enc
##lo
directly
scen
ent
vibr
##inary
##itting
characterized
discussed
##sor
##ades
intensity
balance
##assive
population
##ste
risk
means
defined
equilibrium
benef
does
cluster
collisions
##osity
scenari
earth
gravit
processing
hal
importance
extre
law
modes
propag
##ped
##arm
allows
mac
stable
post
anim
cases
inhib
rob
##omb
sequ
regard
extern
40
orbit
boundary
adap
plants
reas
##active
relatively
##ensive
below
biomass
account
approaches
improved
achieve
mill
##ised
expansion
reactions
fast
measurement
##reless
##ared
bacter
atomic
biological
pers
channel
wireless
sum
promising
##orts
resonance
##ysi
know
reli
addr
groups
hyper
##overy
##ectors
bur
##cent
clos
eas
hypoth
##ecting
te
197
compu
##grad
##ogn
atp
achieved
relationship
gly
monitor
classical
tre
scales
mes
identified
thin
requires
excitation
generally
turbul
internal
relev
conv
gam
areas
particularly
pulse
2010
consistent
device
direction
##lex
additional
following
industry
external
##ah
##ativistic
##inal
coe
certain
last
rand
synthesis
asp
involved
##iting
events
subst
##brid
cosmological
variety
make
##roscopic
heter
##ta
contrast
thermodynam
industrial
quantit
continuous
mach
##rogen
ability
##estion
##anning
day
nanop
view
demonstrate
plan
situ
thick
maintain
##ots
comparis
wall
fract
tradi
##fact
expos
imaging
conte
hom
cellular
rad
clear
cu
difficult
##ret
necessary
random
dig
sample
wavelength
##less
muscle
decrease
ret
driven
search
gravity
##iple
##bers
ca
ens
##amil
individual
sat
mg
hybrid
chem
##assi
shape
provided
##tle
fraction
##rial
domain
age
element
optimization
##itable
mm
stim
disease
activation
nanos
exchange
gev
##ulating
cancer
independent
neutrino
##vent
mitochondrial
theories
##rete
able
pv
##ital
requirements
uniqu
full
fix
2011
fermi
2012
displ
valid
swit
substrate
across
magnet
nodes
##lic
26
reducing
overall
positive
scheme
poin
past
##nov
2008
caused
etc
##cep
2009
whereas
##ening
surfaces
dietary
hence
##encies
basis
enhanced
##izes
describe
vacu
distance
relativistic
another
##to
agre
elements
interesting
##medi
differences
poll
barri
physi
purpos
noise
2013
##ra
shock
difference
concept
mev
context
damage
polymer
fluctuations
##uit
nutri
cooling
perm
2007
greater
countries
##mon
##omp
break
soil
transform
finally
regime
nanopartic
##aining
detector
liter
communication
##by
interp
27
successful
##ytic
existing
compounds
fab
output
close
cop
samples
event
index
growing
cause
cover
##ded
##io
run
crystal
confir
prepar
chain
insulin
err
sustainable
##ellar
best
poly
##olved
##tracted
brain
2006
currently
nam
28
jet
reproduc
elastic
gravitational
though
cann
interface
##tics
recept
foss
ow
##obic
##mentation
lik
acids
##des
unit
phenomena
por
existence
servic
useful
typically
rather
fail
depends
##ogeneous
fossil
films
carried
flex
vir
strain
double
again
comparison
##tron
cond
costs
imm
gh
##aps
rays
##hy
gene
##acts
gau
nuclei
##ledge
vacuum
pum
constit
adj
whether
center
irr
gover
electromagnetic
mil
accuracy
lh
polic
##ones
dna
hot
sal
aer
relevant
##omm
distributed
accurate
led
site
kg
oxidation
mut
combination
might
cardi
combined
knowledge
literature
before
topological
60
adsor
predicted
expend
accum
product
bo
designed
fem
contribution
##itted
subsequ
oxide
cand
##reshold
##agr
unique
##ored
##ne
##ams
##ynth
degrad
traditional
home
2005
##ware
exact
lack
acceleration
approximation
cruc
##50
##edom
fluores
cannot
arg
##cal
suggested
occurs
##certain
lumin
analys
fatty
containing
gamma
angle
quanti
battery
##aken
diffusion
crystall
photons
description
regulation
controlled
##pite
sector
##ats
ther
2014
upon
##osynth
anis
alter
decades
ever
propose
despite
##herent
##ont
affect
mar
##ious
auth
##actic
microb
rang
remains
established
##anes
threshold
excited
##ronic
needed
##acting
anisotrop
rich
##ury
constraints
blood
respect
mal
2000
decreased
##ina
fuels
sensitivity
##land
bone
gain
least
hist
shell
infrared
arch
medi
##tration
magnitude
diab
ps
yet
initi
scalar
subj
side
integrated
suitable
##uts
film
glyc
qcd
sensitive
gauge
lipid
introduced
##tors
##ystem
poor
deep
typical
candid
sensors
concentrations
##pir
behaviour
##urity
lep
analyzed
bos
series
transitions
agreement
univers
towards
construction
uncertain
position
vary
indicate
loop
address
##most
condens
##eness
##ensions
##retion
formed
becomes
##lation
isol
coord
detailed
##anol
2004
special
estimated
expendit
issues
##aries
tens
operating
fa
sites
crucial
zn
##emb
image
cho
clou
kev
developing
nano
##utes
chil
2003
##lor
gradi
##arily
smaller
saf
tog
strategy
##ensities
buildings
abund
##itation
access
proj
action
##tructure
stars
input
##sm
together
soc
##ises
conductivity
impl
##order
dissipation
restric
nanoparticles
tel
##king
2015
ga
facil
##asis
detected
##unction
deliver
revealed
fully
phases
##ee
##eth
layers
reason
challenges
##nel
clusters
diss
surve
basic
mot
##atus
simult
advantages
extended
distributions
##ring
##gn
stage
clin
exhibit
expenditure
minimum
simultaneous
enhanc
modified
##equ
repl
##get
tas
hor
plane
possibility
figure
partial
tor
turn
needs
incor
molecule
##enti
against
later
##apor
##otyp
relation
cyt
##amin
activities
exerc
metall
galaxies
charged
pack
previously
calculation
entrop
rise
proced
variation
lines
##ows
strategies
neu
##ervation
##ban
mice
computational
##amilton
experimentally
tum
00
##ash
bm
##lusion
hamilton
relax
whole
batteries
plays
##ulf
almost
collision
labor
smart
statistical
massive
modeling
synch
approximately
semiconductor
##ame
##ote
conform
##greg
##ceed
##igen
##ference
29
my
log
##fs
genes
##etes
generate
points
van
recogn
31
##ream
##ung
deg
neur
2002
tev
energetic
35
##pri
secondary
pc
bey
##abilities
##isms
3d
substan
give
harves
uv
dc
beyond
edge
appropri
final
##ibility
signals
resource
##man
propor
string
##ohy
kin
issue
nor
lhc
##ufact
geometry
predict
taken
predictions
incorpor
fo
##wh
pathways
equip
mel
##allel
monitoring
morph
##iral
block
dimensions
deriv
dynamical
making
release
construct
utilization
satis
##ellular
agr
dual
makes
intermedi
manufact
na
supers
implic
leptin
vit
objective
da
squ
concer
responsible
likely
eth
summ
thickness
##icity
2001
attrac
##back
##ounts
modern
microscopy
next
commerc
slow
32
feature
extrem
conducted
coal
ast
sed
angular
configuration
purpose
##enge
##omal
##ography
patterns
##epti
estimate
##for
considering
adop
engineering
irradi
help
##eases
##icial
variable
men
##assif
phon
fav
providing
substantial
cav
silicon
complete
artic
##etal
urban
neutral
challenge
depth
question
explo
distin
move
commonly
whose
prediction
##ayer
exercise
##eration
##ident
regul
equival
##ights
expr
glass
fiber
underlying
nitrogen
la
separation
polarization
fixed
##pa
disorder
explain
govern
ni
what
principle
classif
tempor
considerable
depending
phenomenon
cold
observation
##ols
objects
probe
spl
dip
2d
latter
cd
pt
atmosphere
barrier
deposition
contact
evaluate
##inity
##sp
differential
focused
employed
##we
having
##organ
##ogenesis
diffr
##chemical
##stein
autom
shift
practical
interacting
mid
china
##ochemical
forms
dispersion
##aced
##iter
evaluated
aspects
mc
track
cut
pure
degree
ter
##que
identify
##ope
place
amino
##zation
contribute
entropy
parallel
thir
excess
##atch
degradation
physiological
frag
##10
vector
protoc
##emia
europ
presents
amplitude
map
##elling
##ople
plasm
##opl
diabetes
market
scenario
##oming
who
iron
##line
appropriate
highest
##iform
##istry
##oustic
simpl
##erate
pattern
disch
##ovol
##water
tunnel
80
dm
drug
##ancy
underg
invari
investigation
compr
propagation
orient
expon
people
tend
trap
take
lifetime
##ectiv
half
host
electrode
crop
consists
instr
europe
1999
##ify
conservation
sensing
inside
causes
quasi
##oint
flat
availability
kind
##dynam
##ems
chrom
##ogenic
##uon
##ry
thermodynamic
33
diagn
motiv
pd
react
seen
correlated
fam
##ank
##tices
##come
electroly
forces
##inos
offer
##ymmetric
photovol
days
axis
composite
suggests
lith
avoid
##li
fed
rapidly
##osystem
diseases
counter
attrib
##co
##oxide
vehicles
ol
affected
microw
robust
##olar
base
intrins
au
##energ
soci
ord
horiz
fluorescence
harm
agricult
##den
sun
clean
photovolta
mobile
pathway
accept
transc
##itect
##apy
she
##elf
coordin
1998
little
amb
pb
compact
lear
##pc
hamiltonian
##ytes
examined
atmospheric
clinical
improvement
connected
##rome
subject
prior
excell
05
enti
##iles
limits
advantage
findings
calor
coefficient
receptor
##ef
##oelectric
##atically
uses
profile
tub
##gs
national
##oper
lig
experi
fill
densities
complic
2016
nucleus
five
##aged
##sively
static
metals
##ohydr
rf
##tes
environments
##dren
##of
understood
program
##ude
particip
turbulence
##ument
hadron
excellent
shear
##20
potentials
##enced
scanning
flows
breaking
computing
mr
analog
pulses
architect
supple
desir
children
analytical
nutrient
##ched
galaxy
##ascular
variables
masses
scaling
beams
bacteria
ms
##ered
signaling
oxidative
losses
##aling
calculate
harvesting
examples
##son
unc
public
probability
gradient
##econd
analyses
##eral
uniform
algorithms
quantif
pp
##seud
social
transverse
surround
numerous
cam
status
spher
trigg
recovery
attractive
34
adipose
##zed
microwave
prol
tested
##itors
combus
fas
##ady
##uter
defects
commercial
pseud
width
animals
nar
##olec
mn
##otherm
##emic
iii
located
followed
includes
carbohydr
fusion
##isation
manif
laboratory
pass
treated
evaluation
consequently
cp
sr
sections
selected
##arb
every
appar
diffraction
homeost
##ott
remov
chiral
error
##sis
##ices
luminosity
extensive
satisf
indeed
correlations
##tructures
dominant
integration
ic
relaxation
##acement
liver
progress
benefits
selection
specif
extremely
tensor
##tracellular
cloud
lact
pic
shap
exposure
oth
photosynth
synthes
attem
##iev
magneti
acoustic
mov
mixing
oce
trend
percent
micros
sequence
women
detectors
aggreg
div
##atives
channels
##tine
adm
##omer
##way
intermediate
##house
animal
##omic
##urations
000
involving
images
grain
supernov
holes
genetic
deformation
namely
station
stellar
others
superconducting
numbers
electrochemical
tissues
stabil
variations
localized
##ready
ben
already
distinct
occup
decreases
assemb
ideal
assessment
horizon
##kn
excitations
heart
improving
competi
depos
temporal
fracture
warm
photoc
mixed
combustion
meet
science
36
mi
forward
reference
upper
shif
advanced
galactic
sufficient
policy
enhance
never
contributions
did
##tile
90
researchers
third
entire
anomal
enzyme
article
carrier
goal
freedom
eigen
diets
##eless
embed
absence
reconstr
daily
radiative
inver
##ysical
dose
vehicle
##portun
efforts
opportun
quantitative
bands
adsorption
fit
horm
attracted
authors
metallic
ionization
pet
longer
memory
delay
failure
isolated
family
instance
increasingly
enough
dy
sulf
chlor
nanoc
array
introduction
dirac
immun
lowest
circuit
hu
##ger
regular
compare
##iggs
adapt
70
math
poss
greenhouse
taking
seed
visc
suppr
received
room
rou
wee
pow
##ands
discovery
doped
driving
pollution
##ema
dust
ra
units
bir
##oring
##olding
discover
gives
##ocation
remark
done
##ways
discrete
remain
periodic
##ki
mitochondri
##ead
record
appears
##tering
instability
##cale
cn
inflamm
feeding
higgs
subsequent
indicated
specifically
jets
degre
##ches
##hes
##oys
##day
visible
bary
##itions
biof
enzymes
impacts
accretion
potentially
astroph
degrees
association
nearly
photovoltaic
ws
implementation
tests
explore
intrinsic
tox
explic
detect
location
varying
node
complexes
homeostasis
analyze
##uli
acqu
represents
ecosystem
unf
interpret
##instein
nanot
procedure
crystals
sea
frequencies
cat
ram
plat
works
scre
radius
tools
orbital
explicit
##sts
##elastic
property
belie
##bility
rotation
perturbation
##ysts
cult
##inement
redsh
prefer
1997
capable
activated
monte
white
instead
exceed
her
shar
##onses
feas
diffus
##tenance
included
scenarios
coherent
##berg
##itt
quantities
##off
producing
care
measures
responses
narrow
easily
teles
effectively
45
hour
complexity
ocean
##uals
viol
don
sout
einstein
accelerated
estimates
37
concern
security
mitochondria
duration
draw
elev
surv
resonant
carlo
bes
conclud
bran
deploy
confirmed
equivalent
telescop
parts
criter
ultra
gases
pan
maintenance
reactive
interven
living
##olds
precision
accumulation
composed
##light
reliable
facilit
variability
youn
##flu
##wide
derive
regarding
turbulent
wal
subjects
saving
extra
fri
targets
bor
rough
expressed
dense
pairs
smo
computation
scientif
hem
vers
thereby
community
##irect
tri
invest
##ru
##enting
nucleon
dys
##igr
substit
illus
mediated
simultaneously
transient
neutrinos
possess
decom
den
configurations
upt
conser
achiev
safety
rig
##ih
coul
vibration
successfully
defin
##ymmetry
enhancement
tunneling
##be
##abor
##arc
explained
veget
dominated
devi
##fa
diamet
respir
reliability
amp
capture
plate
continuum
constitu
oscillations
##yro
virt
lithium
##bi
formal
steel
six
##ls
nutritional
##tered
color
substrates
coulomb
net
##umines
consequence
scientific
quite
2017
reduces
pepti
mechanics
acet
systematic
assumed
yields
##mann
##set
involves
challenging
modification
tumor
solve
196
ice
coating
##ula
individuals
worldwide
publish
zno
disk
inner
##icular
phonon
##ocytes
artif
polymers
diagr
infras
resolved
extent
mir
indirect
wil
always
transformation
machine
tio
schemes
tex
vertical
working
dielectric
profiles
survey
##war
demands
transl
suppor
deple
precise
1995
extensively
ranging
undergo
contains
drive
pump
##ectivity
##go
solvent
semi
nutrients
##tz
binary
degen
ring
##mic
injection
converg
equipment
1996
##energy
fish
km
seas
##rs
pig
amounts
determination
brow
##ometry
uptake
primarily
rev
implemented
discharge
anten
month
linked
##ativity
##acing
##ryst
ones
##ley
death
service
##omy
##ading
01
illustr
spont
equal
itself
migr
learning
flav
infin
mh
services
asym
##oted
symmetric
prepared
corrections
wood
collider
##fficients
forming
economy
coefficients
users
spontaneous
zone
##let
largely
negl
##imin
harmonic
house
extreme
exponential
##oor
##ults
today
##osp
quad
examine
humans
embedded
asympt
explos
candidate
##bal
singular
task
intense
created
bott
##°c
emerging
powerful
transportation
collected
motor
dipole
##known
##ires
additionally
expand
chemistry
determining
irradiation
##ges
prevent
hab
switching
rele
severe
changing
inflation
estimation
##tely
project
extraction
sti
modulation
##ometric
popular
300
protection
minimal
manufacturing
chronic
allowing
ti
computed
suggesting
##weight
let
hypothesis
##static
crack
fine
seg
requirement
##reh
affects
correct
precip
moving
##ga
until
throughout
investigations
mobility
pm
##eck
outs
pene
smooth
cath
hall
95
##app
interference
closed
##ocal
qual
steady
anisotropy
removal
mostly
##inant
indicates
fabric
oppos
technical
grown
feedback
agn
identification
compreh
perf
##tis
serious
turbine
young
##eletal
##ressive
ways
height
##lusions
integral
interm
technological
media
flexible
expect
##ematical
choice
sound
##urally
glut
largest
##ss
##idity
curv
organisms
38
obese
##otropic
european
million
cavity
milk
##ommend
describes
healthy
just
##reg
recommend
##ished
situation
##ighb
##ortex
concrete
mitig
idea
enable
##ements
capability
##otype
published
completely
microbial
##rophic
inverse
object
original
rare
incident
characterization
electrodes
nanom
##eline
alk
diverse
rein
software
boson
catalytic
unknown
preval
utilized
aims
##rication
neighb
overcome
oste
generalized
platform
##cl
defici
gold
eg
pi
##tures
involve
nutrition
membranes
morphology
takes
enab
microscopic
own
splitting
impos
added
landsc
confinement
synchro
fold
arc
satell
survival
##ptions
referred
ml
cooper
measuring
rats
comparable
phosphory
localization
therapy
42
refr
complement
sched
ultras
##iction
computer
##reted
##osphere
neverth
compens
foods
nevertheless
##ened
too
isot
photocatal
##apse
fluxes
supported
consisting
transcription
conduction
setting
surrounding
rh
tur
earl
neurons
whe
international
diameter
##iples
##band
##orous
bright
consumed
protons
dissoci
late
attributed
ambient
nanotub
drop
##aer
price
alloy
guid
##ict
mineral
hydrodynam
studying
resulted
protocol
compan
neural
plastic
disturb
ct
exhibits
put
fermion
ill
sampl
besides
manner
curve
500
stoch
##times
medical
principles
norm
domains
cf
efficiently
uncertainty
brown
homogeneous
finding
traff
arbit
1990
##ffer
vibrational
##ematic
impair
head
accomp
##ze
##oids
currents
synchrotron
hf
viv
constructed
diagnos
accompan
dry
display
##hyd
proportional
beg
decade
arbitr
fall
generating
user
simulated
biofu
##olysis
forec
cas
ros
conclusion
decreasing
theoretically
empir
max
lasers
##uits
enables
exists
##ending
##inis
##rosion
##ightly
injury
rest
consequences
doping
##osecond
dram
periods
iner
allowed
loads
##like
germ
mamm
pip
innov
##amic
##ush
##ca
##pression
##30
square
wr
##wid
date
abundant
leg
formulation
##part
absorb
history
mathematical
solv
controlling
induce
built
infrastructure
curvature
posit
##rons
quen
introduce
##width
rock
##uminescence
dioxide
electronics
get
toler
implications
vs
##ighting
evapor
calcium
75
##ik
##stream
methyl
distances
hop
mas
explored
clearly
synthesized
inh
##ographic
porous
orders
sav
alloys
##oidal
create
##omers
##tioned
##oxid
describing
39
ub
##oding
adequ
lept
align
pyr
operator
casc
##sian
dev
parad
stochastic
effort
redox
##lysis
ethanol
curves
1994
001
tail
##nas
hadronic
##wise
optimized
pion
##oti
promo
cosmology
cere
superc
stored
loading
quadr
vivo
mort
code
sizes
compression
ratios
cs
wet
ultim
##lim
sd
limitations
##amine
produces
redshift
connection
roles
metric
hydroph
greatly
##onn
reser
##cessive
perturbative
ensure
##ulus
conclusions
crystalline
##zz
##oms
stages
residues
apply
skeletal
invariant
bill
thought
populations
isch
manip
##agonal
architecture
communic
##isted
conj
orth
emph
limiting
relativity
##lip
collapse
silic
statistics
operators
details
tm
##inning
renormal
rout
assessed
mor
agricultural
##itudes
ionic
collective
kinetics
majority
nitr
neuro
sustainability
##iness
mw
pred
emitted
alumin
spread
evol
promote
concerns
observational
grad
artificial
precur
hund
intracellular
advances
digital
favor
realized
frame
steps
kinase
dro
reinfor
##olic
planning
##ubble
indicating
##izations
trade
##yan
training
hydrox
##apeu
port
sle
selective
topology
offers
mt
joint
##bl
traffic
coron
reports
owing
discovered
onto
methodology
##estions
mixture
comprehensive
collabor
bus
gluon
##olecular
bri
##tibility
exposed
##othermal
##urr
recomb
##ylind
delivery
testing
chains
48
anaer
suffici
##ishing
##ectiveness
lign
1993
visual
interpretation
believed
gaus
cylind
wat
candidates
hep
composites
ster
applying
universal
ha
##herence
##electron
ecological
picture
##function
electrostatic
colum
##ken
##uting
sets
ta
valu
##uments
follows
carbohydrate
attemp
ign
deform
##vest
intensive
practice
##bur
##versible
biod
reasons
hier
##gl
conduct
resonances
passive
usage
dispersive
fabrication
dil
frequently
old
##tinal
vapor
##ilities
bonds
marine
##ana
uns
observe
starting
##bo
effectiveness
bil
ru
iden
decomposition
hierarch
##tingu
##organic
cham
virtual
island
##trans
extract
exciton
actual
bacterial
##eters
realistic
earlier
recyc
outer
##olet
circum
confirm
moderate
seems
calibr
attenu
ze
##orders
extension
##tition
##aring
##ulose
becoming
hundred
differenti
qualit
bud
hex
preven
constrained
infinite
suppl
minimize
landau
easy
ns
nd
ci
##ception
##ivial
friend
seism
oxides
apparent
accoun
catalysts
radical
distingu
adhes
semiconductors
tetr
extracted
quantity
subsequently
dos
aug
wa
reached
emitting
43
behaviors
quarks
chip
pu
absorbed
damping
##urated
assuming
bias
explan
separated
fault
md
bol
adaptive
ce
folding
##atin
##12
##ipal
friction
released
medic
##ares
gi
closely
rib
spacetime
synthetic
astrophysical
##emble
##ubb
circular
adminis
##acial
movement
##ci
recognized
##sk
##queous
sufficiently
generator
cycles
##oplas
stream
naturally
polarized
enter
accurately
##pective
actu
1992
skin
copper
operational
empirical
rna
mim
radial
conserved
44
his
read
solit
flexibility
abundance
sod
##ovascular
rotational
anisotropic
plasmas
##iders
disorders
methane
treatments
complicated
np
adults
operations
diges
elevated
prog
lens
##eting
valence
electrolyte
##mark
carriers
heterogeneous
mer
stack
instit
pie
##haus
ds
##cp
##gu
synchron
warming
oh
preser
##ogenous
##ipher
##ifications
unst
century
sense
controls
therapeu
forest
confined
deposited
telescope
inelastic
41
annual
fractures
transpor
diverg
routing
##ealing
alone
compton
##anck
industries
perturbations
desired
anaerobic
##iding
showing
onset
characterize
moist
##yte
constants
prolif
##inter
hydr
phosphorylation
−2
##igu
fermions
orientation
lam
stationary
tension
regulated
longitud
bottom
adjust
aqueous
##ull
monol
assumption
tracking
vortex
##otes
absol
cardiovascular
habit
piez
ht
triple
divid
fluids
##ulsion
constraint
ampk
##uling
comparing
adopted
fibers
trial
recover
##uv
##roc
society
##oir
decays
inhibition
running
sa
lipids
arrang
formalism
decision
depletion
tom
od
tit
##adays
left
wavelengths
discre
representation
unstable
table
compute
lor
alc
gran
sugar
serum
possibly
##ii
overl
drople
arise
implies
magnetization
##unctions
country
55
interact
lib
united
version
##ophag
inorganic
##ilation
agents
keep
raman
cogn
right
##uk
subun
mortality
sand
hypox
residual
landscape
bandwidth
interfaces
nowadays
spectroscopic
criteria
dft
parame
##versity
##1111
ubiqu
serve
infer
share
zh
regional
suscep
vitro
lagr
reserv
repe
spatially
rod
envelop
charging
hypothal
cardiac
south
shall
solved
maintaining
##dle
huge
perfect
away
##pro
operate
catalyst
prevalence
sleep
once
aden
supernova
ba
iv
rotating
reservoir
bh
macroscopic
spherical
focusing
consideration
phosphate
restricted
arbitrary
##lycer
cour
supplement
assembly
02
##edi
##aviolet
influenced
satellite
##ery
modelling
fati
travel
look
combining
raw
errors
partially
north
faster
diagram
##encing
defect
hours
art
predom
transmit
household
2018
directions
farm
true
consumers
diversity
install
ultraviolet
policies
questions
transpar
motivated
suppress
donor
asymptotic
cc
sampling
lin
resol
concerning
mis
fluor
##ylene
peaks
coinc
biog
##ych
insight
experience
##gue
walls
##char
##down
remarkable
##uth
americ
addressed
receptors
prove
ld
anth
aspect
isotropic
university
##ba
##igm
65
planck
boundaries
##well
improvements
cul
face
oscillation
regulatory
doc
peripher
kcal
##rich
cha
##asting
##abatic
suppression
nanostructures
implant
inters
µm
cust
proved
bonding
##imes
government
stiff
##opt
adjus
longitudinal
geometric
superconductors
attach
uncertainties
anomalous
friendly
aimed
pal
blue
installed
ball
formula
window
initially
perspective
tube
occurring
viscosity
gw
powered
shifts
gaussian
mos
ven
superconductivity
quasip
transduc
hormone
fatigue
significance
couplings
bursts
gut
deal
brid
fm
pec
##gae
stret
##yle
nanow
absolute
vor
thermodynamics
months
moisture
##comes
capabilities
organization
##flow
##anium
##ulates
revers
adult
productivity
47
nad
patient
ans
intell
sex
##estic
correction
exchang
reactor
##eak
expensive
converted
recorded
pharm
reflection
alcoh
big
filter
turbines
weakly
antenna
acces
##ategor
##tives
precipitation
dissociation
build
displacement
baryon
savings
metast
placed
sedim
##gf
##idal
assign
ligand
therapeutic
quasipartic
interpl
accompanied
ss
switch
brief
reconstruction
##fill
compati
utilizing
instrument
amorph
categor
separate
elimin
centers
xr
##ker
brane
belong
entang
classes
amplitudes
perme
respond
46
superior
bmi
manifest
collection
bat
reflect
weather
photosynthetic
unlike
##obacter
theorem
affecting
seismic
developments
convection
emit
benefit
melting
summar
400
lot
prosp
valuable
kr
investment
outside
persist
##cing
cub
pen
barriers
weeks
##orption
prices
regulate
migration
causing
essentially
wt
1991
inhom
induction
root
numerically
observables
positron
zinc
relationships
penetration
generators
facilities
native
alkal
##40
##anth
##entz
spr
biochemical
##rought
##cepts
coverage
##acchar
arises
iso
divided
pac
proxim
overweight
aging
modifications
az
##fr
##opro
adi
nanotubes
##enk
replic
wastewater
rice
conformational
dye
adequate
##ued
##yster
vital
##osen
converter
programm
stop
solving
exhaus
planet
references
proportion
screening
opposite
apopt
##exp
preparation
foot
peptide
##imeter
##thal
shor
saturation
achieving
stem
optimize
slightly
ee
tip
locations
classification
##ilic
beneficial
piezoelectric
##onical
front
obvious
microgr
topic
inflammatory
definition
dots
solids
grains
chosen
##rystall
lorentz
iter
reviewed
hardware
oct
sph
influences
wild
uk
condensed
miss
excessive
imped
contributes
emerged
salt
intellig
##dm
resis
##fort
meal
##ivers
concepts
crops
gate
jo
##ales
amorphous
##nal
instant
interfacial
immune
approximate
exhibited
hip
flight
##ressions
circuits
##arr
insights
doub
lateral
supersymmetric
why
synd
consuming
predominant
##uble
deb
accep
powder
fres
##etically
##aterials
continuously
##ectives
roll
##ws
##iti
##ert
intercon
specim
sodium
baseline
broken
insulator
merg
##las
accelerator
initio
paradigm
educ
tc
newton
subjected
lagrang
##alian
usual
fermentation
competition
column
ten
wear
highlight
phenomenological
residential
kinds
##tp
surpr
agent
corresponds
toxic
dot
##trical
genome
corrosion
photonic
1000
regimes
lactate
recombination
##oma
actions
modeled
thermoelectric
laws
derivatives
adaptation
quick
male
##bm
##itz
guar
acute
goals
tasks
##lu
##agg
classified
##ocr
##unch
##inations
throughput
convert
tuning
##vd
dies
remote
ferromagnetic
pel
rely
fertil
pollut
##ulos
jap
##ocyte
##rence
disl
autophag
sectors
##puts
ammon
##adily
terminal
author
fire
##rolog
hydrophobic
##bod
proven
angles
##sibility
nanoscale
versus
respiratory
exotic
considerably
##lusive
mp
##romatic
outcomes
1d
##apac
opto
##abolic
meson
arising
promin
##load
##iph
fluctuation
projects
bmd
moments
bosons
convergence
billion
intervention
56
##vari
nps
##activity
represented
##head
regen
annih
interpreted
ranges
ago
similarly
evaporation
##carb
##ky
comes
analytic
earthqu
opportunities
mirr
##ka
cmb
psych
vic
antifer
conductance
abn
cognitive
occurred
peripheral
ensemble
partition
sympt
aerobic
cascade
explanation
hol
inherent
##igible
seem
start
acceptor
course
##itively
histor
wsns
lighting
##estinal
assumptions
percentage
adiabatic
muon
inclusion
##atile
facility
reveals
induces
protocols
trapped
##rometer
planar
cathode
bed
strip
erg
employing
machines
safe
photosynthesis
##ometer
conjug
##ifying
complementary
ip
##the
annealing
stimulated
##fluid
cultiv
##icul
enrich
##opes
##plicity
desirable
wides
##pread
##ili
pulsed
pit
##tionally
define
edd
road
explor
##olester
agriculture
widespread
##tible
##stellar
grb
carry
hydra
environmentally
horizontal
##pendicular
ordered
filam
accepted
guarant
canc
pregn
swe
attempts
overlap
syndrome
pain
leak
nucleation
fourier
##lear
##oxyl
week
hadrons
creation
recognition
positions
utilize
viable
appearance
reasonable
fabricated
osteop
scheduling
aus
asymmetry
perpendicular
distor
regarded
##raft
trop
##cn
##ired
controll
ecosystems
purposes
petro
feasibility
##going
fs
les
##ript
nonc
accelerating
diesel
mag
carr
sulfur
feasible
dysfunction
##ool
motions
afric
probably
communities
cataly
multic
fragmentation
sharp
supporting
varies
accounts
150
objectives
lagrangian
eating
##bits
##fc
##ulic
behind
internet
impurity
discussion
antic
substantially
##da
interval
fret
determines
supernovae
parton
mentioned
inflammation
envelope
aqu
##ints
allocation
altered
haz
##vation
03
##gap
##olym
expressions
budget
cities
##ovsk
hydrolysis
reserves
domestic
sheet
##arse
##iesel
##elled
electrow
utility
junction
##imension
feedst
charges
arrays
biogas
lum
ts
##ords
neuronal
former
variational
controller
breast
##izable
ingr
verte
1989
exactly
ia
##ucid
plasmon
ultimately
route
fresh
##dom
note
mu
anode
interconn
##fe
##romagn
interfer
microscop
##bral
come
microorgan
antioxid
bit
immedi
phosphor
rule
asymmetric
changed
attack
facilitate
51
incidence
clouds
52
##dh
varied
gained
##uck
optimum
du
gel
nh
om
coherence
arter
probes
portion
biodiesel
hydraulic
marg
##err
##oster
esc
##thermal
electroweak
call
lys
ellip
biology
alterations
participants
shaped
iot
except
negligible
49
kj
##ention
quantify
opportunity
wes
##ocities
reviews
city
pyro
sequences
eventually
##bor
##enes
remaining
rain
subm
velocities
favorable
stre
elucid
##entary
##acent
cholester
transist
cellulose
harvest
1987
transferred
glycolysis
tree
reverse
hydrocarb
occurrence
famil
culture
surprising
##imensional
##80
comfort
generates
plus
relies
singlet
members
identical
53
##asive
standards
introducing
adipocytes
tolerance
##cin
##electronic
mapping
strains
##oxy
stresses
clustering
vitamin
conclude
tight
datab
mj
threat
inspir
deployment
embr
corn
observable
##ogeneity
##ney
drying
coordinate
trigger
communications
hr
refs
blocks
acts
heavi
irre
procedures
##osine
##ils
ant
applicable
realization
axial
breakdown
myoc
middle
formulated
auton
encoun
trends
gaps
marked
situations
collaboration
ls
ash
##ysics
suppressed
wavegu
##imer
##bra
deficiency
hous
shorter
principal
reproductive
intermitt
accessible
coast
hypothes
leaf
averaged
stiffness
ej
weld
##kary
arri
designing
starch
liquids
chamber
hypoxia
performing
label
##posed
bench
##restrial
simply
shocks
dx
regulating
centre
rs
restor
programs
##eding
scin
grbs
anthrop
##16
abnormal
thor
##unately
limitation
osteopor
cum
##isely
##echanical
110
shapes
diffuse
papers
unclear
proliferation
57
##occ
lean
pairing
burst
ber
nc
##iger
cycl
##imetry
explicitly
##oded
##aching
designs
hydrodynamic
cholesterol
graphite
##hydrogen
susp
cycling
mixtures
elementary
enabling
adoles
neutrons
bioenergy
##vant
##aff
reversible
indoor
females
interplay
improves
aluminum
precursor
trivial
phyt
stimulation
99
ablation
insu
directed
cubic
85
maps
##ulator
##shore
satisfy
54
hd
pore
cyclic
epid
perman
concluded
##iculties
minimizing
supersymmetry
store
female
surveys
drugs
apoptosis
feedstock
##osphate
construc
filled
microstructure
##ulsive
difficulties
cla
##idden
steam
torque
stra
fractional
devoted
renormalization
medicine
prominent
scintill
##iers
##gp
module
canonical
optics
predicts
financ
kh
##ented
chemicals
alge
birds
che
##okes
04
##15
drink
propagating
validated
adverse
unus
reconn
precisely
poorly
gaas
mrna
carbohydrates
rigid
calibration
slope
realize
microorganisms
fung
##rup
giving
reflected
##osynthesis
##nutr
perovsk
circulation
attenuation
independently
femt
ventil
locally
1980
gradients
competitive
bending
tin
##la
photod
kinematic
flavor
lang
##itous
conducting
##itr
##elines
##elves
flares
dedic
generic
colon
ka
quenching
schro
concentrated
viscous
stri
fluorescent
giant
64
hz
##urities
unpr
flare
oscillator
walking
intensi
clar
bath
tidal
##17
##era
bodies
##activ
analyzing
impurities
##ended
efficiencies
analysed
degener
cation
−3
##ompos
crude
consumer
assume
ghg
##itance
possibilities
terrestrial
bose
ri
##elial
##relin
symmetries
fitting
contained
opening
attempt
wheat
##nutrition
##rec
dimer
obtaining
trem
restriction
enhancing
administration
affinity
prolong
diagnostic
arm
metabolites
focuses
snow
explosion
rub
rules
co2
simulate
glu
blaz
pulsar
disordered
ff
##field
##alk
soluble
destr
stronger
doi
meaning
olig
gp
gan
rural
##alc
stro
continue
searches
pix
##point
leaves
therein
otherwise
degenerate
impaired
astron
trace
maximize
downstream
derivative
biofuels
cb
emphas
autophagy
##oli
datas
diagnosis
unfort
adhesion
rat
sized
##lin
##asts
capt
aggregation
tunable
maintained
qualitative
hind
uncon
fruit
mess
##fication
##ardial
reaching
differentiation
ordinary
document
gd
happ
secretion
tuned
mutations
acquis
contributing
accordingly
timing
operated
inhibit
ghrelin
eigenval
season
dedicated
##jector
deuter
cry
linearly
relevance
respiration
tomography
sf
wake
trig
newly
inser
simplest
annihilation
vast
##oral
signatures
##ancies
reconstruct
##rystalline
western
eight
imbal
adding
##ospheric
majorana
1988
ferro
fibre
microbi
cows
wire
aged
111
attain
spac
resistant
fission
lost
yang
##ians
intra
violation
compatible
missing
##tein
interventions
coatings
recycling
rational
##leum
##ump
physically
bring
termin
replace
mv
evolutionary
ultraf
incorporated
simplified
wsn
ubiquitous
entanglement
straight
##wer
extracellular
reyn
grids
creating
lc
sb
outcome
##dinger
helium
ischemia
transparent
signature
conformal
deviation
dramatically
distinguish
##ano
apart
condensate
ye
##enz
processed
selectivity
validity
express
supports
vo
##cher
supercapac
massless
proposes
demonstrates
lifest
difficulty
nanocompos
readily
india
constitute
monolayer
winter
##vin
##sed
##urf
##ouple
performances
minimization
vicinity
unfortunately
imag
regression
67
##yd
##25
intakes
students
assisted
##iving
packet
panel
##olytic
grass
determin
actually
trajector
loops
condensation
instruments
symptoms
benchmark
river
vul
predictive
reynolds
trajectories
evolved
120
reproduce
careful
femtosecond
dest
exec
ads
sky
depression
##while
business
reconnection
bp
dehydrogen
relay
spins
summer
preferred
ae
ath
mail
pn
tensi
##ming
##ectin
conve
discr
rotor
oriented
mhd
##ata
modules
bip
##oluminescence
offs
gib
##forms
options
prototype
spectrometer
rising
##gc
coex
nucleoti
instabilities
halo
coordination
replacement
##60
remained
microscope
tensile
mouse
##zing
##ayers
72
interstellar
sugars
discharg
hundreds
enorm
##ota
sphere
##ession
standing
geometries
schrodinger
gc
##ged
overview
requiring
layered
nanowires
cros
vess
##tility
##jectory
toxicity
##tinu
##mented
##yll
spectrome
trajectory
convective
58
##13
##amination
termed
targeted
pseudo
enormous
bandgap
geometrical
##airy
##equilibrium
deviations
recommended
##urrent
acquisition
moun
thous
##itax
boltz
uh
thems
acting
prev
sometimes
themselves
°c
##mm
##arities
accom
noted
1985
beginning
##vs
##agon
rhic
##ral
##rose
males
silica
os
##use
contents
edges
alternatives
lengths
saturated
substitution
hazard
bubble
ll
coming
observatory
transmitted
engines
##oking
stock
##oton
minor
indicators
pressures
companies
gradually
financial
tb
##agen
pollutants
##onf
##terior
basal
catalysis
silver
acetyl
categories
quickly
boltzmann
##otox
##ada
prelim
susy
globally
encour
coordinates
expanding
maxwell
tract
orbitals
return
promoting
embry
##atit
contamin
positively
member
maximal
fasting
drawback
alignment
preliminary
vascular
##pe
disad
modify
repair
63
spring
effic
exceeds
susceptibility
predicting
vibrations
invariance
trapping
##ocrine
permanent
disadvant
cyan
##kin
##ni
##olation
##ucl
parity
supplementation
stations
capacitance
crossing
practices
##urable
##otrophic
representative
68
600
codes
matching
emergence
alcohol
mb
intensities
##anned
approximations
adjacent
biofuel
lm
##14
setup
sio
macro
filling
ah
physic
1984
burning
metastable
accompl
proceed
195
##grade
mesons
##arith
##ender
consume
petroleum
dairy
tag
bounds
insulating
dwar
ho
representing
nerv
spaces
clock
option
photocatalytic
accounting
repeated
bs
rumin
exception
diam
photoelectron
links
inversion
aa
wang
web
seven
cutoff
##ively
##versi
verified
##awa
accelerators
complications
beta
##lyc
extrac
plates
methanol
properly
microc
coli
skyr
adenosine
##atomic
##iling
receiver
negatively
vegetation
normally
ordering
optically
identifying
correspondence
german
1986
singularity
inertial
exploration
algebra
interestingly
##otypes
nick
##odal
##anding
##ounced
scattered
digestion
pin
##illary
organs
argue
logarith
phonons
birth
osteoporosis
things
spot
##ours
thermally
upd
##otherapy
triplet
impedance
claim
terr
hepatic
pay
##ese
ine
older
illustrate
aid
ey
##inger
comprom
mini
##ronutr
glycogen
prevention
programming
consistently
education
stokes
score
decline
investigating
traum
remarkably
hs
##lets
##ocell
covari
conditioning
granular
sic
##oz
actin
calculating
organism
geothermal
sustained
kil
tax
##odynamic
inhibitors
corona
predominantly
db
flo
translation
cores
governed
##ging
##aton
##amp
exploited
triggered
spectrometry
##enn
roughly
mitigation
quadratic
shallow
stroke
solub
##parts
##scs
tubes
letter
lies
##hs
##ece
##igation
markets
criterion
born
bin
cement
##lass
altit
cris
meanwhile
aeros
antiferromagnetic
insufficient
kid
importantly
enabled
hierarchy
junctions
lung
##emistry
modulus
metr
sediment
database
fair
vide
##ocor
suffer
priv
converters
##ethyl
##gery
1−
62
qds
##gical
##alactic
disru
superconductor
reversal
prem
fron
became
slip
##after
bilayer
dg
nb
reinforced
leakage
##crib
stat
remove
##print
residue
##enkov
japan
##oved
spe
adsorb
##menting
sud
##endous
nonequilibrium
dissipative
reproduction
forecasting
vortices
96
t2
##eper
##osome
phant
##ologic
myocardial
psi
##olip
##ested
disturbances
tropical
tremendous
ln
suff
adjusted
ultrafast
##elect
strict
paths
epitax
lepton
efficacy
latit
forcing
subc
absorp
nearby
roughness
ppar
stabilization
deployed
turns
aromatic
dd
sor
coronal
reductions
exclud
endogenous
reaches
peptides
ultrasound
bridge
##emission
live
##ancing
drift
contrary
ultrasonic
ef
hos
mission
##oon
##isen
multif
remn
insulators
equipped
sedentary
weyl
##izer
2020
interior
##cdm
glycer
paras
repeti
traits
logic
parametric
nickel
##ren
diodes
shield
variance
gross
speeds
save
##19
inputs
##angular
sink
ligands
nervous
braz
defic
fixation
split
electrolytes
counterparts
proof
heated
eukary
##traction
##ressible
cylindr
rech
##otive
##esium
drag
##okines
transformations
motors
cerebral
98
##bert
mining
monop
organized
indices
##biotic
mirror
til
##ita
##ele
parent
##erson
wastes
magnets
school
hormones
intelligent
ventilation
ded
##ilization
era
offshore
robustness
benz
permeability
##18
##estim
alph
unified
removed
absorbing
named
pharmac
ing
##ondo
dynamically
cytoplas
institute
peculi
hp
excitons
photoemission
pumping
innovative
lac
##oe
decisions
##oupling
heteros
exploit
seasonal
lifestyle
##ha
modulated
appeti
considerations
expectation
gm
##uries
online
ongoing
span
lie
fitness
inhomogeneous
eddy
athle
fis
hosp
ventr
pron
##udes
1982
substances
quantitatively
##ommod
cutting
antioxidant
fb
words
##oscop
##stac
conductive
pointed
fragments
triglycer
74
76
##inery
shr
meat
match
originally
yielding
hyperten
##itten
param
infection
##tructured
muscles
delivered
decl
insulation
serves
combinations
cupr
ghz
board
socio
cach
##unic
oils
telescopes
lignocell
accommod
respective
polyc
microal
astrophysics
installation
pregnancy
imbalance
lamin
##py
##erative
obstac
workers
malnutrition
intermittent
slud
μm
polyp
solvents
##ubbles
optoelectronic
hyster
##ike
disp
bounded
mutant
droplet
american
inspired
metrics
burn
##amate
ship
risks
rigorous
##ulosic
qd
##empor
capital
optimizing
morphological
branch
ket
mater
rings
conject
discon
slowly
distortion
escape
78
brought
##abs
thanks
multil
circulating
covering
ignition
discrep
cone
acad
thermo
imposed
attached
quasiparticle
inform
dispos
mono
manifold
neighbor
proximity
ammonia
1a
lying
##vis
##po
##70
##state
##ella
templ
analytically
facing
nmr
antennas
crosso
##omous
conformation
systematically
##ypt
injected
broadband
mesh
covered
cern
py
##sen
##imination
incomp
surgery
randomly
cytos
dramatic
unusual
appetite
sludge
66
73
income
drives
ceramic
arrangement
crisis
hold
confl
motivation
constituents
cylindrical
box
atlas
nanor
nanomaterials
##erts
detecting
necessarily
sheets
##eor
soy
polymorph
59
##ned
sensiti
extrap
quantization
ves
##ardi
integer
fulfill
250
mild
lacking
mammalian
digestibility
brazil
##ara
detr
check
cms
dn
##ani
dimin
aper
vanishing
incorporating
subunits
fly
lag
list
##eres
##osomes
##amus
##phal
miner
functioning
balanced
video
dl
##vity
##ders
##lat
##oline
##used
bearing
systemic
perh
##ahed
incorporation
dehydrogenase
##eced
colliders
personal
traditionally
initiated
discontinu
kondo
imple
##avity
started
matric
plasmonic
exponentially
innovation
orthog
autonomous
ib
zones
reform
applicability
minutes
harmon
ideas
urg
concerned
accounted
titanium
eh
adapted
##uvate
africa
couple
fro
null
rip
##itic
##ico
constituent
specimens
bang
##pler
evid
wells
##rophy
eos
##ugh
anion
converting
transformed
austr
phantom
depart
notably
outflow
neurop
subunit
hypothalamic
tons
coval
replaced
perovskite
perhaps
shower
coa
contro
earthquake
##los
##rea
coh
associations
promotes
integrating
retention
##hyth
regulates
##olecules
lar
##vals
alf
highl
union
##thern
##factory
emphasis
microgrid
pronounced
ham
##ction
##iler
chick
verify
estimating
extending
lignin
##pers
add
combine
accelerate
enzymatic
argued
drawn
supplied
hypothalamus
panc
tl
##dna
absorber
steep
appeared
going
##imetric
briefly
persistent
crossover
69
agree
branes
souther
isotopes
bb
tan
##ends
undert
##ordial
markers
hardness
1970
xrd
minerals
thz
neb
nanoparticle
governing
droplets
gibbs
haw
##dis
##umen
cher
sput
##body
hoc
mf
shed
polyn
contributed
primordial
similarity
amplification
boost
coastal
hubble
##uctive
##une
intestinal
fractions
projec
manipulation
77
mtor
##ners
thr
##ogl
transf
protect
##ittance
inferred
a1
luminescence
tn
##tia
imper
##yroid
unpreced
bn
##inese
dyes
mhz
##lassical
southern
pole
thi
##ergl
considers
zhang
duc
fif
##acyl
##uler
##illing
nov
encoded
physiology
pigs
cooperative
carrying
matrices
kern
##raph
##onectin
inev
prey
stores
phenotype
architectures
yeast
rm
##idine
##aven
repulsive
receiving
##urface
fi
rab
##cents
##omial
chinese
introduces
intrigu
dissipated
mammals
dp
qgp
som
##ora
##astically
resting
##ops
diode
assay
reactors
acquired
illustrated
deduc
##eling
minima
translational
quadrup
unprecedented
coarse
pulsars
validation
experienced
seeds
thom
##acr
contrac
coated
aft
refers
tumors
northern
resistivity
dock
war
##coming
##itus
forced
##ami
##opath
recip
##ishes
additive
continues
purely
##oil
##ai
##zer
##onucle
##ifts
deter
##rosis
evaluating
handling
penetr
chaotic
hypertension
nr
##elian
compl
interl
photoluminescence
frequent
##ophysical
initiation
##omple
contacts
hart
adiponectin
projected
nir
##rob
##acet
##umination
##irection
##elles
potassi
holog
ju
##atom
lattices
vulner
osm
##21
algae
economical
disturbance
aud
hone
##fied
##aturated
spacing
pret
winds
humidity
magneto
anomaly
instantaneous
intriguing
potassium
##osin
evident
protected
momenta
1983
chloroph
coronary
sudden
##sch
constitutes
accumulated
hexagonal
800
ly
matched
##versely
macrom
comparisons
cavities
##ini
##elet
magnesium
capacitors
aftergl
bis
jus
lived
enhances
dominate
inhibitor
favour
exploitation
analogous
panels
progression
adolescents
soph
##rh
##reting
sto
spite
##mental
suited
completed
firstly
diagrams
illumination
enthal
##amide
coding
yr
λcdm
biosynthesis
crystallization
peculiar
ple
storm
adp
meteor
robot
hetero
melan
##burst
dislocation
families
bif
mism
nn
segreg
confidence
pumps
##eller
##ifies
structured
comparative
helps
forecast
radicals
captured
06
##cm
##ya
##ato
##ceived
quint
caps
radioactive
palm
phosphorus
maternal
gains
kw
##apes
semim
##oked
displays
resolve
##rological
holograph
pw
patch
td
##itary
fore
diagonal
efflu
##ensus
##aceu
exploring
contraction
scienti
statistically
shifted
mitigate
sar
##anted
ionized
renal
prompt
economically
hierarchical
cumul
rb
##100
disks
usa
afm
precurs
chir
endoth
focal
wavelet
delayed
boron
paid
select
##augh
##ked
##23
##tiometry
##imir
alle
defl
##partic
guidelines
hydroxy
sweet
hidden
##ford
progen
imply
##echnology
tung
##odynamics
monitored
validate
sophistic
guide
bay
collim
##tity
capacities
1981
sne
raised
possesses
brightness
pyruvate
assigned
dxa
71
##bar
redis
greatest
strengths
isolation
melt
settings
cylinder
documented
diamond
absorptiometry
aware
pf
sunlight
pacs
87
count
vision
ww
unexp
obl
bios
##ordance
indicator
behavioral
quantified
glutamate
habitat
unexpected
gall
gast
##fall
inher
disapp
cleav
quantized
trials
odd
parametr
pixel
disruption
cherenkov
deterior
ech
ty
wim
##requ
poli
welding
rt
##eine
##argeting
chemically
soils
##hydr
waals
airc
cy
##etall
assist
connectivity
stimuli
diabetic
exploiting
fragment
acceptable
aggregate
orthogonal
cast
##enty
##sia
synerg
casimir
dich
##uary
##embr
strati
bioc
researches
subsystem
text
isotope
degeneracy
##olate
valley
superg
fourth
snr
adsorbed
summary
portable
waters
qualitatively
##olymer
supercapacitors
79
##aft
##sten
injuries
division
##rystals
holds
##path
##rof
##iclassical
##ulph
presently
cyclo
biomed
profound
revolution
surprisingly
pancre
mismatch
precursors
hydrop
electroc
alpha
07
kle
rank
entr
overhead
reflects
texture
bf
bubbles
night
pent
##pot
sof
integrity
transistors
61
97
rr
##ods
##oped
examination
herein
elasticity
acetate
##cribed
tg
##ives
##aceutical
rail
##gal
##fold
notion
projection
segmentation
actuators
mimo
kidney
civ
push
knock
##dynamics
recommendations
waveguide
prolonged
solubility
fp
tp
##ochemistry
##isson
breeding
played
##embles
##eptide
##idirection
bever
##ichi
intervals
recording
flood
locom
##tification
lowering
powers
anticip
ak
##aptic
promise
##dehy
volumes
##ospin
aligned
ultimate
rus
##urance
##ember
antim
functionals
amplif
irradiated
coexist
lu
mell
targeting
meeting
polys
broadening
glasses
eigenvalues
##ectic
##alling
##inding
adiposity
directional
permit
virus
mutation
hopping
wires
strings
meta
showers
##odegrad
1978
lactation
heavily
biomedical
##ipl
##gm
##22
tough
##etary
##eman
##ume
ree
microp
colloidal
tendency
coordinated
camera
entirely
azim
polynomial
cod
nom
ov
ton
characterizing
helical
cytoch
implicated
##forward
camp
##ihood
awar
##itely
deeper
train
grade
purs
person
platforms
guarantee
immediately
microalgae
inequ
##ura
##oto
assessing
occupied
precipit
exhaust
##electro
recharge
bunch
iod
##ius
surgical
##related
shells
##owski
supplies
planetary
azimuth
##ulin
contamination
pool
buffer
latency
preferential
deficient
conjugated
sir
##urate
compet
##adequ
corrected
commercially
automotive
transporters
newtonian
sophisticated
ped
##ball
##based
consistency
sequential
burden
pione
##ubbard
soliton
redistrib
libr
##stone
disrup
neither
grows
treating
automatic
morb
inadequ
distant
eco
intram
department
byp
actively
orbits
spent
opens
arab
fruct
multim
voltages
porosity
adoption
stacking
disappear
wider
##ris
oral
##izers
incoming
methan
2019
sectional
epith
viewed
adjustment
households
thousands
##rot
competing
foundation
preventing
convex
allevi
awareness
##zen
##tified
protective
tends
aquatic
blazars
disposal
scientists
hubbard
mature
pil
sap
##iable
##ogens
synthase
weighted
latest
##where
reservoirs
trauma
##iotic
chap
nontr
aiming
encoding
pyrolysis
cvd
eb
##cr
metam
creates
breaks
intermediates
questionna
auger
thorough
east
ner
rect
anc
knee
##wards
1977
energetics
striking
dt
##iance
##net
elong
scope
integrate
ultrac
##ahl
transcriptional
fermionic
debate
microbiota
##oscopic
gather
worm
##asion
##osomal
convenient
centered
argon
inverter
tt
##90
##induc
rever
functionality
separately
exhibiting
##lusively
##idirectional
08
##onomic
##inated
partly
originating
inhibited
regardless
evolving
83
ucp
##omics
distill
combines
markov
offered
fried
implementing
##onsist
compart
infants
goes
##accharides
82
herm
oz
planned
pathological
probabilities
sitter
mills
harmful
stabilized
vegetable
ischemic
irreversible
##osities
reactivity
scan
provision
implicit
anthropogenic
hospital
86
vl
##states
acyl
scar
specified
furn
transported
inflationary
impossible
islands
dw
dur
hm
los
ryd
##arity
inclusive
farms
bonded
recovered
muc
sho
##azing
epoch
radar
regulator
stretching
reconstructed
discrimin
df
##atric
##uly
##perturb
unb
soon
multiplicity
generalization
viability
ferr
switches
movements
exponent
exceeding
solitons
quasiparticles
##obacteria
gase
yb
##orn
##ritical
solute
desorption
grand
grained
manage
abelian
contribut
nearest
costly
latent
1979
replacing
reinforc
hc
##len
##pan
##omorph
##unctional
probing
compressed
redshifts
alkaline
buck
cow
dh
eq
hg
##acer
backb
planes
elemental
nl
consensus
grating
upstream
filtering
##ibrill
extends
arguments
discreti
kv
saw
vhe
##oa
ising
trunc
##iax
exciting
balancing
ferromagn
propagate
nanotube
nucleotide
hil
##orem
##ulum
survi
surfact
superfluid
endocrine
edu
altitude
nons
tach
##tium
simplicity
##ensitive
poisson
lifetimes
nonlinearity
apparatus
assembled
hysteresis
tungsten
hydropower
tes
zr
##agalactic
demonstrating
capacitor
polymeric
connections
expanded
deformed
destro
aircraft
nontrivial
bc
regis
bund
driver
mutual
incorporate
comprising
refractive
glycerol
vesic
##embrane
84
qubit
addressing
turnover
duality
sharing
encountered
rydberg
analyse
lub
##acc
radii
explains
##functions
##itability
##ocations
##unt
evs
biodegrad
commit
milling
nanof
mott
undergoing
nitride
footprint
pat
tf
##wood
##atase
mangan
influencing
dominates
##edients
arrival
ng
assim
blast
advanc
probed
extragalactic
robots
nanostructured
##bean
synchronization
ingredients
bcs
hh
mand
##hole
##enyl
##urs
##usive
##amb
elder
coil
volatile
conformations
foam
computationally
neglected
alkali
hypothesized
94
ie
##hol
neon
windows
auto
oxidized
##induced
cis
rumen
maize
commission
concentrate
randomized
indirectly
spontaneously
rolling
historical
dang
jose
##orting
##emann
##atil
noble
##ova
ionizing
starts
ends
luminous
underground
libs
modal
##ventional
180
##ankton
tang
##polar
##anine
chen
undes
frus
repulsion
derivation
transduction
regeneration
cyclotron
fitted
kerr
mak
2050
##ateral
emo
obe
##ivity
proposal
##inson
fibro
divergence
coincidence
92
pk
##ench
##att
##romechanical
lee
variants
severely
##atories
machinery
##ohyd
branching
evolve
noncomm
endothelial
lp
sig
shared
presum
hereafter
heterogeneity
aux
summarized
filament
docking
##dehyde
gaseous
oc
west
##itably
invasive
equally
fuzz
defining
##ophore
alternatively
extensions
outst
http
munic
##fp
##atur
demanding
discusses
offset
singularities
deformations
##oprotein
enriched
bipolar
skyrm
bw
euler
##otically
##omeric
##uty
compositions
interested
hydrodynamics
synchronous
electrocatal
gb
##urg
foraging
modulate
topics
fuller
dispersed
transcript
calorimetry
cnt
plateau
enterpr
aperture
elderly
outstanding
fits
hb
formul
brill
hydrothermal
colour
choices
germany
quadrupole
nematic
sulph
etching
twice
filters
semiclassical
sucrose
irrigation
specialized
highlighted
dwarf
athletes
lignocellulosic
quintess
erosion
fock
lym
##itin
##itory
tot
selectively
organelles
damaged
engineered
inertia
routes
conceptual
military
hydrocarbon
holographic
ban
mind
nine
rc
tok
phyl
carcin
climatic
emerge
counterpart
repetition
bare
##str
##ulators
energetically
scaled
poul
helix
segments
controllable
disadvantages
ore
differs
necessity
torsion
diffusive
##regulation
gluons
gastro
700
intended
basin
establishing
sciences
priority
herb
hydrocarbons
projectile
mellitus
−0
##ski
##ola
prin
##iances
kept
stringent
caloric
cnts
correctly
compensation
hydroxyl
joseph
pom
##anch
##odic
promoted
leds
microbes
fungi
ferroelectric
accomplished
rend
investigates
observing
sliding
continued
adopt
avoiding
eliminate
##etallic
88
bim
rp
##isp
##osc
chand
specificity
semiconducting
gait
satisfactory
aggregates
wheel
dataset
enthalpy
fash
##utive
##orb
##atz
##term
incen
##pring
cooled
##zzle
89
jour
##ients
ism
trib
seaw
agns
descri
##scatter
fundament
##heimer
game
implantation
pharmaceutical
prevents
pretreat
hv
rn
##ads
compressive
hybridization
fructose
fashion
##glycer
##lined
fores
##ild
retr
weights
crust
curved
appliances
neighboring
filaments
cytochrome
vectors
##za
inexp
##opic
##enger
drain
sintering
receive
trees
spheres
egg
keeping
fd
mri
##ij
else
##ills
overex
radiated
nucleons
remod
polarit
undergoes
segment
master
suspension
offspring
binaries
detrim
stoichi
survive
fuzzy
pes
pores
qed
round
intact
drivers
critically
adipocyte
comprises
logarithmic
##inking
timescale
computations
cultures
asymptotically
dilute
doses
customers
answer
ventricular
multilayer
fes
gear
dead
colle
harmonics
h2
##35
##32
##utative
perceived
##phere
##ophores
pipe
insertion
eject
perc
brings
convers
dissolved
chloride
supplemented
undertaken
inadequate
poultry
bow
bigg
intercal
##asses
alternating
closer
myosin
powders
achievable
spray
covalent
political
##ometers
isospin
##adian
none
monoc
counting
straightforward
transfers
kernel
afterglow
##iaxial
lt
##pes
conserv
twenty
absent
polymerization
bosonic
branches
plasticity
conjunction
##iguous
##activation
##isenberg
##trically
##ulatory
interests
amyl
lives
photos
originate
1976
##lands
advantageous
written
preserving
constructing
##alcogen
sputtering
2p
dic
rhe
urea
##aly
##edient
##rogr
##perm
spiral
##flows
pcr
habitats
marginal
segregation
inexpensive
drought
pem
tightly
compac
strand
relate
exclusively
buoy
propulsion
axion
compensate
unconventional
chlorophyll
supergr
bd
##eties
##ao
##istically
incomple
electrically
regulations
advance
seconds
eds
avoided
mtdna
circumst
progressive
urgent
alfven
ease
jan
nations
sole
##quark
apprec
connecting
normalized
##oplankton
adjusting
khz
cumulative
cleavage
backbone
sati
isomer
extin
versatile
##electronics
replication
specimen
cations
##ighter
heisenberg
calorimeter
nanocomposites
eye
d2
fal
piv
processor
thermogenesis
slower
pathogenesis
atpase
##monary
vegetables
nanometer
rubber
##particle
##ama
plot
flash
develops
##exc
ensuring
packets
doubly
##dhood
##requency
municipal
josephson
coc
mpc
qm
rg
##uss
parabolic
inconsist
epis
volumetric
childhood
housing
##alysis
desal
deceler
secure
sensory
subset
##cales
##piration
eigenstates
translocation
emitters
dislocations
ingredient
mental
##trol
##tier
anch
elast
collector
explaining
gasification
representations
urbanization
reserve
intensively
cass
fec
gave
ko
kwh
##ees
##min
collect
carboxyl
schwar
subsid
angi
##etism
planets
##energetic
##regular
hepat
cultivation
spacec
psii
gro
rar
albed
cars
fewer
cmos
accumulate
company
linac
destruction
drawbacks
aerosol
hartree
incub
solely
##illus
searching
immob
nanocrystals
baryonic
cattle
lensing
elucidate
nt
##atron
##elihood
##opy
underwater
swim
strategic
ceram
stimulate
##what
illumin
susceptible
stretch
cancers
vertex
reinforcement
ck
##38
##ester
##uristic
triph
redund
somewhat
inducing
suspend
doppler
reproduced
synthesize
partitioning
xyl
##com
##yg
##24
##amak
nitrate
elliptic
##rog
anderson
modifying
impul
##avier
office
america
cad
hif
koh
passi
rms
##aine
shut
##ips
motif
geograph
involvement
falls
streams
soybean
interlayer
schwarz
aur
igf
say
xen
##pin
forb
retin
plaus
##ava
##ionization
swift
prepare
clarify
gaining
lob
pas
##isc
deals
strange
meters
quar
contempor
limb
##ought
classic
luminosities
drops
##burg
harvested
template
ft
hair
joh
empt
livest
mah
symb
catalog
##iversity
whil
unav
liu
fruits
##ube
severity
irregular
worth
computers
collisional
analogy
satisfying
conjecture
klein
##atility
detrimental
livestock
kink
pg
##titial
fluctuating
likelihood
widths
##ospace
lesions
##uclide
deficit
##umps
gram
superlat
breath
contrad
##regulated
pitch
langu
carefully
##ronutrient
honeyc
toughness
ultracold
pretreatment
81
##leigh
forth
##emi
moduli
2030
lev
starvation
phenyl
utilizes
decaying
magnetosphere
thresholds
uhec
eukaryotic
whilst
cz
navier
resin
##adium
140
purification
linking
quantification
prospective
pharmacological
spacecraft
##bp
##entioned
traps
notice
##atorial
neck
encomp
automated
diagnostics
immediate
scarce
##quet
transmembrane
oscillating
frameworks
baryons
screen
wilson
##occus
bun
ew
sgr
##aint
intu
subt
##ophilic
##ategory
emerges
automob
transporter
cytoplasmic
albedo
09
je
tay
##53
relating
##ensable
agon
1974
torus
apparently
gar
ku
p2
##ided
alb
modelled
observer
equil
capillary
originates
depri
machining
prevalent
controversi
deduced
azimuthal
fc
fasc
lv
##erated
reper
dealing
rayleigh
monoch
rapidity
ranged
child
intrinsically
elevation
deterministic
tokamak
supergravity
mpa
nac
##gin
modest
unch
accordance
additives
frames
vacancies
faults
##arboxyl
constitutive
##hydro
custom
fisher
conversely
##aled
##ica
##itant
exogenous
##umar
meter
examining
gravitation
retard
degraded
interstitial
labeled
incompressible
batch
category
intrac
ester
insp
blind
##entral
responsive
endurance
partons
anomalies
acquire
facilitates
preserve
prospects
discrepancy
mur
vas
wo
##iety
##iest
multipl
##ycin
secondly
name
behaviours
manufactur
participation
passing
detectable
violating
transparency
highlights
##acylglycer
quintessence
93
hollow
sv
##ima
meals
photochemical
##intestinal
delocal
handle
##urnal
publ
1975
aerospace
laun
satellites
iterative
psychological
kar
pq
attract
interg
scores
lightweight
demonstration
backscatter
shortage
compress
biodiversity
earthquakes
strictly
heterostructures
ather
##tious
indisp
consumes
developmental
weaker
switched
##ethanol
##iliary
happens
vessels
shielding
##abstract
dend
producers
destin
formulations
collaps
serving
prime
encaps
hamiltonians
muons
##lycemia
gastrointestinal
ncs
tack
##pi
forests
##ergy
org
shot
scarc
floor
generations
superposition
synaptic
quasars
##factor
intermolecular
extinction
honeycomb
tank
inn
places
characterised
excitonic
infinity
pumped
attributes
cheap
kinematics
morbidity
nond
rhyth
sought
till
##pen
##wich
intes
##zyme
robotic
epitaxial
ses
##mer
thyroid
##antic
##ichia
##estation
provin
dependency
outper
integrals
mutants
packing
magnetism
identity
ceramics
gn
##ram
isothermal
nonperturb
biot
multiph
afford
storing
shifting
believe
expectations
transmitter
riemann
taylor
ble
faces
uc
##44
##onas
modular
unable
recoil
colliding
##depend
profession
reflecting
cuo
equivalence
participate
investments
neurode
destroy
91
boh
cft
iee
pions
vm
##fast
##wave
##29
superm
electrodynamics
timescales
salinity
suspended
ccs
lad
nas
##hood
elabor
glp
##ophysi
steels
tune
satisfied
moves
stabilize
stere
readout
enrichment
king
nf
pose
##ocyan
plug
freeze
integrable
permits
femoral
turned
rupt
##transm
restoration
execution
pad
stated
##tivities
activate
harness
counts
closure
manufacture
displayed
solvation
discharges
hawking
cv
sad
trophic
##inte
pla
##pose
nonlocal
backgrounds
explosions
belonging
transistor
private
academic
rechargeable
##ohydro
tib
##icing
##itol
##ewise
underestim
concom
partners
homolog
uniformly
removing
cracks
nadh
questionnaire
indispensable
secreted
behave
##roduction
necrosis
roots
playing
enclos
macroph
retrof
achieves
positrons
##itional
##lines
wean
lever
mechanistic
correlate
maximizing
homo
chromodynamics
photovoltaics
deposits
heavier
covariant
rarely
lic
##no
##onium
##ille
asia
##ellow
mechanically
minimized
cope
squared
distinguished
accommodate
stm
spir
spanning
accid
smith
averaging
practically
glycolytic
impairment
##dominal
fan
##lab
##tiles
##place
median
##tructural
##lerosis
experiences
arctic
hfd
spreading
adhesive
conservative
equilibr
ieee
crow
fetal
gir
spine
##ouin
advent
landfill
phospholip
stimulus
positioning
cfd
markedly
meaningful
imaginary
zig
##frequency
cong
##ocated
sports
covers
escher
dimers
applies
resonator
dele
ecology
emergent
stir
landscapes
pipeline
photodet
astronomy
vessel
speech
cuprates
##ahedral
civil
tern
vap
##xr
##anic
rej
##version
particulate
scalable
hydroly
waveform
##ethylene
surrounded
nanowire
paramagnetic
ejecta
desalination
fel
wound
##inone
forage
unres
clay
poses
periodically
causal
antibiotic
salts
comprised
hydration
##onfig
austral
rectangular
bent
bomb
sight
uav
##df
##harm
##ilers
shad
cobal
unw
106
methodologies
whereby
discipl
multiv
acidic
hypers
easier
depths
explosive
zeeman
arranged
pancreatic
coexistence
concomitant
niger
##c1
##osh
##umes
consec
flame
basically
topologies
therap
comprise
releasing
leptons
hosts
fifth
nerve
durability
contemporary
language
escherichia
held
##kh
##iner
prost
##orted
firm
##key
pulmonary
probabil
helicity
successive
faced
argument
inefficient
foreign
dens
fcc
##48
##k1
##xy
##orth
##idge
reality
##ococcus
assays
lowered
converts
opened
biofil
refrig
fairly
##ahlung
interacts
eastern
magnetohydro
pcm
nanotechnology
refriger
##transfer
destructive
refrigeration
fading
xps
##ias
##zero
asymme
##through
implying
signalling
valve
defines
drastically
fats
obviously
rainfall
nonperturbative
cds
myc
xe
sparse
straw
preference
proposals
electroph
refined
triggering
##arbon
glutamine
##oglob
beverages
redistribution
circumstances
##integr
ecc
vig
stom
outd
originated
##oresist
choose
irradiance
cooperation
nanocomposite
auxiliary
plausible
wit
##lies
##bre
##ticity
##otal
platin
agency
fluence
brit
operates
aforem
##oxic
atomistic
assumes
ferment
aerodynamic
bottlen
actuator
datasets
##otoxicity
cohort
meteorological
aforementioned
hun
##atine
##esth
##inally
##elle
##uled
##pless
##ploys
spati
shale
abdominal
decentral
lasting
resultant
acceptance
publications
companion
resistive
mountain
manganese
tu
tro
##otion
##owing
elimination
flip
##teen
subsurface
purch
centralized
topologically
regulators
##othermic
remnant
fundamentally
350
nodal
sds
um
offl
##arts
pros
sps
##uctase
carot
blade
gasoline
sinus
connect
perspec
##board
catalyzed
probabilistic
nak
##beck
##acoustic
##anged
defense
130
pathophysi
phenomenology
articles
dipolar
hemis
looking
attacks
perspectives
ole
##hed
##amins
park
scr
perception
##ailing
outflows
freely
determinant
addresses
adopting
##dynamic
zeol
controversial
dv
hung
nav
##inating
exer
impr
##plex
##obi
##ophil
1972
cardiomy
merger
arterial
distillation
platinum
5g
lou
qos
perox
nonzero
photometric
exclusive
creatine
viral
altering
##rocytes
artery
obstacles
myster
##bach
##ecs
rearr
biop
conductors
amongst
loaded
##artz
fibres
restrictions
vanishes
automatically
sandwich
triglyceride
conflic
www
dav
lake
tow
took
exit
stain
##quis
##abolism
tunn
oscillators
reasonably
distinc
passage
gradual
deuterium
brillouin
lose
##ran
##tra
performs
##ogram
mesoscopic
##rupt
pilot
incomplete
ternary
cw
rating
wm
inp
plans
##tiveness
monomer
thermalization
delta
groundwater
chromat
guided
anticipated
descriptions
neurodegen
bank
dict
kore
sg
sides
##mu
relates
microm
charm
sugarc
server
infil
realizing
yielded
attosecond
broader
exchanges
microgrids
##olymers
bayes
sugarcane
1s
cro
##eg
##oric
degrade
##rip
simulating
##ails
collectively
verification
160
seques
ensures
records
tradeoff
##anthan
inhibitory
determinants
tachy
##bons
##ania
##trated
##omical
unification
##tening
nucleic
approaching
approximated
biomark
sulfate
hydrophilic
gdp
vulnerable
lf
##uate
##olid
prone
leaving
unless
formulate
braking
establishment
helpful
controllers
interconnected
waveguides
##schild
##strahlung
bell
hill
jones
pick
##45
##men
##acements
##eto
entering
heuristic
brems
broadly
laboratories
simpler
substituted
##uminescent
##lipid
##opathy
cg
cortex
yag
##xts
spots
superf
infections
dried
unitary
package
attachment
##itian
ammonium
abnormalities
floating
polycrystalline
cot
duty
ei
fet
ig
ut
##iar
##nes
export
moder
##oreg
differently
electroch
managed
epoxy
wetting
##11111111
wearable
vertebr
tiny
deterioration
chandra
scarcity
job
jump
##fusion
##itch
photosystem
supposed
resonators
renewed
constantly
vacancy
inhibits
hypert
breakfast
gapless
vitamins
spherically
walk
drinks
latitude
boun
eat
eut
talk
employs
commod
cytokines
analogue
inert
bremsstrahlung
1b
4d
gun
ran
##vasive
##yth
##±0
##tir
##olin
##urc
posterior
visco
choos
ppm
inverted
promotion
evolves
mimic
danger
triphosphate
intestine
tand
##uous
stems
notable
measurable
bragg
##oupled
renewables
oscillatory
##ompati
condensates
habits
sediments
joints
antagon
##ibrillation
##harmonic
##gas
##tid
exert
##avor
genus
optic
deconf
schw
ultrah
failures
dissolution
cleaning
picosecond
magnetized
photocatalysts
vorticity
physicochemical
therapies
fid
finger
wk
##iro
##ster
accreting
workload
necessit
##ahn
fractal
malign
tailored
magic
nominal
consecutive
din
−4
##kle
##rane
##eds
tric
modulating
healing
processors
ages
upgrad
##scale
antipro
telec
clinically
phosphoryl
cryogenic
1−x
biosens
schwarzschild
bic
bog
##ko
##ife
reconfig
##ressively
preservation
##000
handed
roberts
offering
rhod
recycled
cobalt
##care
##radi
enl
unity
##hertz
monomers
##yclic
plasmons
satisfies
tmd
belongs
presumably
journal
satiety
gon
sperm
##26
##onge
asphal
retinal
productive
detach
decoupling
posed
crs
universality
penal
shrink
sirt
pioneering
lymph
atherosc
australia
homes
lanthan
sacchar
inference
##aster
##otonic
outputs
hyperg
coales
governments
cache
ozone
seawater
kel
##jet
##27
##ena
inversely
##anetary
##itter
##ison
attraction
cooking
emittance
arth
gastric
organizations
deeply
ethylene
priori
calorie
cracking
sexual
larv
vesicles
eels
##pp
##28
thre
##acillus
##plus
trim
twist
biore
##ausal
potent
topography
##okine
favored
icec
unfolding
merit
hilbert
bag
##enia
spp
try
sham
obsc
##amming
revealing
attracting
opposed
undesir
icecube
cus
ks
onc
##illance
arsen
versions
pulp
maturation
hardening
1973
breakthrough
archae
incorporates
administered
repeat
##ediation
exceptional
miniatur
remnants
bifurc
pivotal
gs
hiv
##acies
##osa
bear
diversi
sew
uniaxial
purity
bioethanol
engineers
mgo
surveillance
learn
uncover
cultural
chips
installations
compatibility
african
##potential
enterprises
dental
hope
##oo
elusive
canopy
magnetically
scalability
alternate
contexts
mediate
triggers
1960
inherently
deprivation
presc
##ynch
arpes
glac
electros
##ogenetic
origins
blocking
virtually
transducer
echo
false
hay
pock
##vol
##ses
##igner
corner
crab
125
geodes
dimensionless
lifes
pathogens
seek
annually
sequencing
confirms
logistic
quenched
expressing
impulse
rearrang
dog
sah
wol
buff
oxidase
polarity
ensembles
routin
extraord
piec
extracts
progenitor
hermitian
assimilation
##36
distal
shelf
unamb
healthcare
viscer
consisted
profit
crystallographic
packed
depleted
pigments
said
##osterone
##onuclear
ultrahigh
citr
##oherence
##cu
##bh
##etals
anions
##opausal
##ensis
cortical
##iae
##venue
stimulating
shaping
chambers
reflectance
sensitized
rupture
aw
µν
##hal
chl
grazing
dimensionality
viewpoint
tumour
cavitation
programme
conserving
flavour
prevented
astronomical
##pathetic
emotional
undesirable
900
gets
nich
##bu
##zes
##imeters
genomic
variant
couples
tevatron
locomotion
intramolecular
geographical
unambiguous
cns
kol
kir
##obs
##rp
##31
##wavel
##enol
##empl
##ergic
distric
twin
cred
##genic
selecting
##press
factorization
conveni
##pecific
mesop
mention
##lik
cascades
freshwater
frozen
macromolecules
library
stainless
bore
mcc
vin
wu
##nm
##b1
##enium
sept
scav
insects
optimisation
backward
utilities
##yrate
caff
failed
manufactured
##oplast
facilitated
excluded
inevitably
makers
sigma
pgc
##o3
##alent
##ories
isotherm
alt
debr
recall
##ione
corro
amplified
folded
putative
tolerant
epidemi
epithelial
empty
##wavelength
cues
jud
june
zt
##yer
##icrob
tour
##utaneous
surge
noneth
subtle
absorbers
eryth
antib
ultrash
##heating
inhibiting
automation
deposit
adaptations
preserved
scintillator
##eleton
iodine
supermassive
larvae
nonetheless
fgf
kl
kpc
ot
san
##gi
entry
canada
aberr
bile
transients
geological
stimulates
foil
ethyl
electrolysis
occupancy
sulfide
raise
communicate
augmented
rodents
proximal
stopping
amplifier
kim
tau
yellow
##yb
##opsis
##aria
manusc
micr
secret
##axial
##prand
edx
individually
##eptides
tracks
getting
drinking
wimp
compete
tell
wigner
stake
##ensiti
##auer
delays
##orphyr
alteration
##fluor
misc
##ronutrients
publication
launched
bayesian
gpa
march
##dimensional
##hl
asc
chern
##ander
placement
photop
heli
nanosecond
harvester
supplements
substitute
turning
supplementary
overlapping
extracting
triglycerides
ductility
noncommutative
lid
trading
collagen
hydrog
goods
transformer
0001
pigment
guidance
attempted
distortions
epidemic
algebraic
biocompati
pne
##environ
signs
nonthermal
biased
blend
##ylate
##ogeneities
ballistic
suffers
obstacle
semimetals
unchanged
destination
##kowski
##×10
retic
managing
agg
optimally
separating
toroidal
##operative
extrapol
furnace
ftir
gender
s1
zns
##oic
##link
##52
isomers
##utation
decoherence
##outh
spinal
circadian
##ront
exchanger
ejection
surfactant
bombard
##ress
##nam
##34
##ager
##ocyt
unt
abrupt
magnitudes
spinning
doing
slight
dopant
retur
uncoupling
paradox
tyros
congestion
distinctive
tandem
asphalt
ultrashort
ahead
merc
pev
prohib
reuse
##sivity
dex
leave
##ologists
190
collecting
conductor
sett
hyperb
thermodynamically
initiate
famous
customer
hipp
frontier
1970s
nebula
lubric
vapour
##muir
viscoelastic
visceral
bases
ric
##etical
##o2
##ette
restr
spark
trip
pricing
##ifer
electromechanical
multip
confining
flowing
fails
triacylglycer
explanations
intelligence
sewage
##orh
##otroph
flag
flower
contour
nonm
smallest
economies
graphs
biologically
copies
sampled
neurotransm
actuation
langmuir
cyanobacteria
alleviate
pomc
fascinating
lb
wing
##vision
stay
acr
##ellation
inco
indones
invent
underw
##ysteine
carbonate
##expl
postprand
runs
packaging
preferences
##arctic
popularity
pacific
mirrors
houses
nanorods
nanofib
##ranean
manuscript
cree
fus
son
##tub
inlet
##itum
##economic
resili
emul
presenting
abr
##ylation
##anese
launch
acceptors
perfectly
outdoor
5d
ict
m2
##39
reward
webs
wealth
structurally
upgrade
insensitive
reporting
metabolite
activating
170
euv
textile
mounted
laminar
deletion
##oresistance
##ril
##omonas
exergy
die
italy
opt
carc
completion
problematic
snrs
implementations
bird
triangular
fabricate
ignored
attenuated
carries
##ocortin
dispatch
byproduc
discretization
##inz
mann
##ards
##icities
radiotherapy
lands
anisotropies
abundances
##paign
##linic
reperfusion
##oglobin
##icrobial
2ϩ
ace
gy
nation
##ahertz
##aded
disag
coag
meg
phenotypes
minimizes
similarities
perturbed
##tronics
pseudog
diameters
falling
implanted
##nitine
mine
pend
##bb
##orov
multit
mems
helm
multiplex
consequent
agrees
orientations
embedding
raises
donors
seriously
neighbour
scintillation
compliance
lifespan
debris
450
catch
lap
von
algal
biogenesis
france
marker
roof
dissipate
certainly
transforms
routine
unfold
assignment
entangled
subsystems
antimicrobial
remodeling
nigeria
brittle
lind
mood
yu
##uing
##sr
##olor
##ionic
crash
excretion
servers
economics
bacterium
campaign
stacked
monolayers
ansatz
emphasized
discontinuous
efflux
inequality
touch
##izability
diph
##ensurate
bioch
spacetimes
transferring
subsp
phenotyp
purified
##shitz
travers
sheath
stabilizing
deaths
isotopic
guiding
illness
missions
pond
##side
##atum
stone
##unk
cohes
peroxid
opac
grinding
micron
correlates
sensible
differentially
instrum
casting
contaminants
forbidden
peroxis
incoherent
2−
mus
pier
##aper
thread
##agic
prescribed
aggl
hydrological
minute
##electrics
hypog
bethe
teaching
quantifying
begin
forecasts
berry
destabil
inevitable
manufacturers
underwent
hi
##ulti
elic
que
sey
swed
belt
facts
residents
projections
collisionless
diffusivity
schedule
blazar
monopole
benzene
vd
−5
##enoid
##strom
attit
diurnal
expense
outburst
lightest
drilling
broadc
reproduces
owners
compensated
phytoplankton
t2dm
e2
nod
pap
zir
##ek
##kl
enfor
orb
##iforn
unste
walker
photocatalysis
adequately
progressively
hypoxic
reversed
fertilizer
pregnant
elucidated
hypotheses
eigenvalue
discrimination
contaminated
neighborhood
inconsistent
##transferase
postprandial
##nt
##junction
##elike
##amer
##forming
flour
hearts
appealing
functionally
served
sympathetic
swarm
millimeter
substance
morphologies
seds
microstructures
chaos
pollutant
aerosols
conflict
evidenced
preferentially
##lipidemia
choosing
ai
ker
##oke
##fas
##hen
##57
ald
##verty
dehydr
##apping
cox
rectif
genomes
##arged
lifshitz
##pressed
functionalities
##ompon
malay
infrastructures
regenerative
message
witness
bt
dub
gt
hur
sz
##idium
##ermal
gray
locked
strongest
binds
lipoprotein
anne
mediators
proceeds
bundle
province
2m
lr
##iation
##zers
enters
##ira
resc
relying
unlik
manure
##ief
protecting
finds
uniquely
pointing
restrict
illustrates
columns
hazardous
knockout
decentralized
pseudogap
bon
euclide
##erant
progn
diver
qubits
abc
crypt
poverty
captures
mediter
geom
##icking
dominance
photoelectro
hypothetical
neurom
denoted
brownian
germination
promoter
predators
digestive
institution
##rology
lumbar
contributor
inspection
accidents
hunger
cen
lactic
##iw
##edimensional
##rous
##rocess
##pered
unexpl
abiotic
december
collinear
motility
centres
snack
mapped
calibrated
traveling
labeling
metamaterials
elsewhere
unlikely
win
##iant
##grou
##reated
asian
quies
wash
scaff
overestim
##oxygen
slab
transmitting
accompanying
libitum
manifestation
summarize
attained
friedmann
orex
cable
hed
mx
##oscal
##period
unbal
##arian
californ
willi
minimally
supplying
##oplastic
cultured
facilitating
euclidean
bab
porphyr
##49
##isecond
##imal
orr
##ocamp
pref
comparatively
##uclear
behaves
indication
stands
biomolecules
hardly
chemis
glycos
catast
duplex
latitudes
##avenum
chirality
overexpression
kohn
chromatography
pneum
hemic
sorption
void
wavenum
inactive
##aron
##room
##elium
forster
##ida
##ticed
alters
unp
mex
smoking
examines
thicknesses
exponents
participating
occupants
begins
categorized
persistence
dwarfs
diminished
automobile
multivari
##quisite
tyrosine
hippocamp
hl
##1a
##iled
began
spur
trained
nonin
layout
##ugal
##ependent
nitric
reliably
displacements
hormonal
goldstone
arbitrarily
circumference
eddies
elliptical
disadvantage
novo
deflection
elongation
biodegradable
weaning
extraordinary
pinning
contract
phil
april
pauli
sno
emergency
independence
cpu
supercritical
resolving
advancement
district
bism
han
##iet
##37
##rocal
##omatic
##otor
reh
anx
compressible
##aki
wavefunction
bioactive
weakness
photoionization
employment
delivering
perfusion
prolifer
austen
ruminants
cytosolic
contractile
buoyancy
mediterranean
hemicell
sib
##47
reag
deph
##ostatic
feat
volc
broiler
players
millisecond
##ceptions
aluminium
fireball
antarctic
tilt
tnf
formulas
infiltration
mich
##saturated
##enic
inas
nex
unn
acclim
seminal
seebeck
chemotherapy
passes
##fluids
eggs
rods
deficits
totally
zircon
unsteady
c2
mars
##otrans
##kt
##np
##uctions
##obl
gland
schm
peaked
homogen
discoveries
##otoxic
juven
intercalation
came
gps
rd
ross
##ruit
##ener
##rev
exempl
##amily
##phos
nanod
##relativistic
colors
##azole
superstr
lett
alloying
pipes
predation
nucleotides
ucp1
january
moderately
brom
kda
mad
upl
walled
xmm
##iang
##doped
##onc
acous
fric
molten
microenviron
matlab
strengthening
uranium
postn
hyperf
martin
terahertz
revis
cereal
ubiquitin
answ
fungal
fibrobl
resilience
july
l1
tof
alanine
##romic
prere
items
twisted
constraining
immers
metallicity
appropriately
##know
##lett
germanium
rocks
##cipl
emitter
historically
skyrme
gig
lighter
rx
rash
##orece
##agement
##plant
quin
reductase
##ober
infant
probable
ect
roo
depolar
magnetoresistance
cdm
calories
msw
hourly
definite
unsaturated
##oprot
ruminal
cytoplasm
telecomm
##oscalar
california
hit
lakes
noc
wd
wb
##fcs
ons
##iring
##outs
impose
##aker
##aceous
##atid
surplus
presentation
vertically
##fficiency
team
radion
camer
manifolds
quench
digestible
unbound
caffeine
gates
lca
pist
qw
warb
##ptive
releases
amph
nonun
crush
wherein
blends
classically
distorted
antis
continuity
likewise
relaxed
definitions
converge
##accharide
##discipl
swimming
bottleneck
routinely
seyfer
atrial
rom
##oni
##elli
noncon
essence
quasar
halos
polyethylene
regularization
rigidity
manipulate
threats
uncontrol
incubation
3c
dsm
gyr
kt
luc
pall
##vo
##tage
##mut
##anti
##ematically
resum
suitability
transit
decor
##angle
potato
networking
inflaton
freezing
##ordon
slag
discussions
standardized
transmissions
linearized
lesser
damped
centrif
appearing
urinary
millions
retained
physiol
leptonic
tetragonal
suppresses
familiar
##occup
commitment
vigorous
2a
bad
bern
dsc
transgenic
##phire
outgoing
superoxide
periodicity
stressed
##insic
##holders
isolate
mno
npy
##itzer
buckling
truncated
obey
encompass
##dependent
macrophages
prosth
indonesia
creep
##omponent
longe
og
pear
ras
##tability
chalcogen
##ifi
relic
##pson
promp
reflectivity
fastest
doublet
kinases
chromatin
regularity
renormalized
visualization
dilaton
##oplasmic
fluoride
patches
unavoid
eccentr
bismuth
bidirectional
pave
xx
##anase
##absor
cantile
sep
105
collectors
oxidizing
graviton
foams
inverters
legis
hydrate
eliminated
happen
deuteron
accomplish
premature
reforming
synergistic
permittivity
sapphire
neurodegenerative
immersed
bps
jac
ϫ1
##gar
##atoms
conical
stark
##umann
manual
##etics
upward
##ycle
deriving
terti
axisymmetric
sterile
farmers
bioge
bridges
eliminating
mergers
1103
hazards
imperative
unresolved
berg
lut
lun
mk
tv
yt
##lination
recruit
##othing
abl
insect
nucleosynthesis
evaluations
teach
chromophores
photocatalyst
resolutions
updated
incentives
hyperbolic
nurs
var
zo
##ige
##odimensional
##oule
suns
leach
##teins
differing
temperate
specially
agro
##dington
predictor
spinor
worse
bars
photoexc
expansions
thermodynamical
invariants
satisfaction
oceanic
antiferromagn
suspensions
extrapolation
hvac
biomarkers
hyperfine
##disciplinary
longevity
2s
4f
##33
##lc
##power
##ham
exacer
style
shaft
##ells
quartz
unm
overload
##relation
serine
microtub
activator
harsh
succin
dispers
macronutrient
1971
mmol
##uitary
entities
pixels
discharging
compromise
cuprate
evidences
thoroughly
nacl
exacerb
kal
wed
warr
##hard
##box
##wal
acknow
syst
interview
occasion
##ugg
binder
extrinsic
architectural
mssm
lamb
alcohols
thousand
tags
covariance
thrust
printing
send
vice
##rt
intim
anharmonic
##ffs
traction
##ifers
##orex
scs
##enses
##grass
whenever
repub
drastic
transmittance
lipolysis
photonics
ideally
assessments
degrading
uniformity
feedstocks
encourage
embryonic
aharon
thomas
fullerene
biggest
spirit
williams
##orecept
tertiary
eti
fwh
listed
##rin
##mium
##estr
##elt
##ques
phones
pull
##reduc
propagates
transporting
divergent
suppressing
prospect
cultivated
guaranteed
d2d
##henius
fate
faint
gordon
nico
pz
sacr
##mog
##enzyme
cones
##opo
highenergy
##actor
heights
equatorial
capita
fired
swelling
postulated
mediating
neurological
mathematic
younger
infinitely
october
epitaxy
stratification
dendr
atherosclerosis
frictional
sen
wise
##43
##holes
##ingly
##tronic
##ames
##riting
prototyp
pathogen
##afts
silage
##uscular
depic
arrhenius
catabolic
versa
possessing
jointly
capturing
update
claimed
mesoporous
unfolded
postnatal
qs
race
rivers
##pd
##55
##win
##orrh
##icle
##imm
##ament
simulator
cord
poles
dimethyl
irresp
lithography
interplanetary
osmotic
oblig
multitude
instrumental
fun
##tri
wasting
scann
scans
##aceae
exclusion
spintronics
schol
filtration
indian
helic
ultrath
geometrically
theorems
urine
neuron
occupation
competitiveness
rhiz
speaking
storms
##holtz
riemannian
tunnelling
dangerous
seyfert
cme
word
inability
##ications
##istine
##idin
atl
strang
twodimensional
##oxin
##oks
steadily
convolution
copy
nanocrystalline
##process
encounter
adsorbent
reciprocal
chapter
kolmog
ultrathin
a11111111
kd
oer
∼1
##lings
reb
alz
##plan
increment
abilities
aval
scho
iran
preced
salmon
fao
icm
##oplasts
fertility
calls
##ocortic
monopoles
fwhm
a1111111111
zer
ont
interc
student
evap
regge
upcoming
blades
slot
analyzes
axes
mesos
reactants
alumina
arrangements
transducers
supercapacitor
eukaryotes
polysaccharides
hhg
magnetohydrodynamic
stakeholders
warburg
bits
hus
ngc
o2
vill
##wa
##onation
inactivation
traces
emulsion
amine
##ype
##ovich
outlined
oxphos
termination
hydrostatic
retail
##igenic
oceans
screened
conserve
heads
##ukawa
emphasize
subcutaneous
sorgh
zeolite
sequestration
##ynchron
malaysia
eps
nio
sst
##ela
weigh
##apped
plots
lowenergy
corpor
nozzle
feel
theoretic
continental
gapped
skills
atmospheres
homology
temporally
passed
predis
##bursts
streaming
lesion
claims
tackle
asymmetries
bifurcation
cameras
avi
ea
gpc
ginz
ky
pep
qq
##42
##cious
##qs
inacc
##omas
prostate
ascribed
coerc
seam
cortic
butanol
physrev
ups
molar
directive
metabolizable
winding
infusion
indicative
implants
blockade
catabolism
solvable
inhab
japanese
ipcc
##cnts
heterostructure
favourable
ferrite
episodes
johns
opacity
anxiety
cab
durations
e1
pill
sns
t1
wc
you
##46
##mo
throm
##emat
peroxide
unre
factory
minkowski
explores
partner
utilisation
##inski
##okin
conventionally
transforming
surroundings
decomposed
hydrodynamical
solitary
perovskites
mtorc1
cyber
frustration
kolmogorov
evapotrans
sorghum
bess
rated
rgo
want
##oresis
##olith
pristine
quiet
##akov
##ressibility
carnitine
coral
##acterial
bloch
##annel
designers
pressing
sitting
succes
refinement
rotary
adipokines
##osynthetic
harvesters
classify
woody
1990s
institutions
isoforms
embryo
discrepancies
robertson
carcass
helmholtz
##occupied
cir
cys
itin
nes
pomer
tari
##va
##mc
##gets
##idopsis
anatom
##uchi
amin
##icians
##yne
nonrelativistic
##iaz
feyn
protease
eddington
barrel
bioenergetic
##adesh
nanostructure
recognize
##cool
microstructural
##borne
compromised
skyrmion
skyrmions
biofilm
coalescence
rashba
nic
tar
compelling
modifies
multiplic
identifies
swing
deleter
everyday
pituitary
polypeptide
arabidopsis
##anche
photosensiti
bunches
hemisphere
scaveng
phenotypic
1c
fad
ger
##eas
##aemia
##oned
##eles
##elity
##iser
##imil
rees
really
anorex
##ado
##ibly
##ritic
hearing
##illed
##ociation
metabolically
##max
researched
populated
polaron
damages
analyzer
radiofrequency
photoinduced
achievement
persons
occupy
assemblies
waist
bao
merging
pellets
ejected
penetrate
stratified
polariton
saddle
antibacterial
reticulum
feynman
deleterious
a2
csi
ether
hib
writing
##enter
confer
traced
##aved
emis
##obenz
##draw
interfere
rises
predator
puzz
messages
russia
sinusoidal
##avorable
alzheimer
ginzburg
csp
lw
tagg
##oting
##iatric
##alities
##arth
##oluble
anodes
dispar
recurrent
clad
damper
profiling
schematic
240
##ilibria
viewing
portions
federal
drawing
##obacterium
summarizes
inhomogeneities
stoichiometric
malignant
evapotranspiration
hots
mct
pbs
row
tal
##tl
##75
imf
##unov
impressive
perfor
1950
underl
radiant
breed
matches
facile
##yrene
retain
glycol
proportions
##beit
glutath
earliest
farming
educational
cheaper
unpredic
deceleration
subsidies
intuitive
monochromatic
irrespective
cysteine
nlo
page
xc
##using
##ilized
ankle
##aka
unoccupied
recur
amen
amel
poland
nois
subgrou
monoxide
counc
feeds
downward
buried
ageing
marsh
initiatives
behavioural
aggregated
monthly
mitigating
lda
apoptotic
redundant
nexus
cantilever
hess
hub
pace
rpa
sent
##ho
##zens
##inol
##ori
##aters
##ecess
anterior
albeit
recrystall
deterg
overt
##pton
reprogr
##ique
##ylak
starburst
##eeding
receivers
balances
rotations
figures
maintains
genetically
enhancements
entropic
placebo
chromium
unfavorable
##gaas
imposing
manifested
pleth
collimated
unwanted
fidelity
cac
lasing
luminescent
qp
γγ
##anonical
spain
wein
##dition
carbide
shortcom
engagement
externally
raising
denotes
deficiencies
taur
exchangers
catalyze
multifunctional
cytosk
imperf
discriminate
cotton
hypertrophy
quiescent
shortcomings
bz
hen
yukawa
##hd
##aturation
paris
##ialysis
adren
##ional
compares
associate
##0000
continuing
homogeneity
cuts
displaced
vanadium
tended
empirically
restore
1980s
##emporal
nanorib
frustrated
sulphur
atlantic
2π
##ux
##han
##oning
withdraw
reading
chance
##plas
disability
parents
##inearities
approved
molyb
multidimensional
geographic
crystallinity
##ashi
pdf
chloroplast
##urrence
lenses
ingestion
##points
chicken
neonatal
retrie
tachyon
annealed
johnson
bov
hn
mant
wl
##pass
##onate
##edia
##ister
##vem
##ritis
equilibria
excite
compositional
capacitive
damaging
uniqueness
##bye
polyph
virial
societies
mrs
huang
##hydroph
dilution
reader
##bodies
lumo
antioxidants
lysine
ffm
encouraging
auroral
albumin
penalty
vinyl
lidar
mercury
council
2n
cage
stic
##oyl
##orient
resembles
append
##graph
##grades
photospheric
##entricular
##veness
##ulture
indications
partonic
cmes
solidification
nonlinearities
regards
pca
avoidance
manifestations
inhomogeneity
conjugate
privacy
advancements
xenon
##arboxylic
prerequisite
glutathione
bss
fle
myr
##ioph
##tance
##dc
##inate
##roid
isotrop
conference
dile
unidirectional
detections
blow
waveforms
generalize
integrates
seeking
210
lipase
linewidth
unitarity
nanofluid
programmed
wettability
valued
wafer
justif
softening
precipitates
outperforms
v2
interatomic
unr
expands
##fld
electrol
idle
microfluid
beamline
magnetos
supersonic
extremal
adenine
jobs
hdl
##ennial
##omorphic
disciplines
dect
leth
nif
vent
∼10
##oan
##mill
##bow
##tio
##inine
tower
debye
consolid
genotype
photom
outline
dynamo
peg
filtered
##health
reliance
industrialization
boiler
thirty
cleaner
circumstellar
instrumentation
ddgs
highlighting
retina
breathing
prescription
dogs
acknowled
sacrific
itinerant
duct
hsp
lights
##md
##level
##olis
tracer
characterizes
moon
causality
logical
surviv
guarantees
irrever
restored
amplifiers
compartment
appreci
offlo
multivariate
gil
##atr
##ulth
##oses
##amers
##amycin
trying
##antly
##taining
laying
activates
providers
glucocortic
subjective
smartph
nafld
diffractive
immunity
qualities
turkey
mask
budgets
cancellation
##ardium
contributors
ferromagnetism
carcinoma
rejection
spatiot
returns
mesoscale
gated
ovari
tak
##fil
##bands
thylak
##icially
tried
##opause
emits
abd
varieties
superhydroph
suggestions
renov
slopes
absorbs
concentrating
harris
maxima
broilers
dominating
epigen
halide
ghost
glycine
##ulfide
attribute
sheep
hallmark
##otide
gauss
adjustable
exhaustion
physicists
heterojunction
railway
flooding
rehabil
alex
nord
viz
zonal
##59
##oler
alarm
##stand
##erman
imping
desire
experts
concurrent
wavefunctions
memories
pathogenic
##prints
indium
litter
dopants
exposures
aerial
favors
mc4
ambigu
filler
idealized
seasons
debated
entrance
ancient
uhecr
kelvin
epidemiological
cables
dere
gating
yam
##iff
##yles
##oside
##utable
##aping
placing
opin
##reev
##obar
esters
normalization
marrow
chloroplasts
heme
1969
tio2
coincides
##born
statement
socioeconomic
brazilian
motifs
superlattice
bounce
antiproton
tourism
photoproduction
peroxisome
cx
holding
##pic
##pine
##zag
shore
generically
##icious
arms
arcs
decis
novem
locate
multiscale
monotonic
combin
worst
ergs
maximization
steering
separations
glucone
parameterization
dispersions
##111
exploits
pdt
regularly
1968
write
ohmic
quarter
loud
conflicting
lanthanide
september
inventory
microenvironment
1α
gest
pak
ridge
sbs
uw
voids
xu
−6
##a1
##dy
andreev
##idities
chron
spend
dialysis
conscious
cofactor
wasted
##phase
##atite
##flamm
upcon
challenged
richness
psr
astrocytes
recombinant
titan
optoelectronics
polymorphism
bypass
superlattices
delocalized
affordable
antibiotics
sdss
##ophila
november
sq
sarc
teller
ys
##ups
##feld
##oly
inclination
genotypes
emb
differed
technically
gli
potenti
inductive
bread
ils
encodes
usefulness
analogues
benign
catech
versatility
confirming
iteration
annihil
anthropometric
cationic
embryos
paramount
stoichiometry
college
hyperglycemia
unavoidable
amelior
eft
sizing
##ville
##nic
tooth
##osan
##owed
exerts
compaction
suite
##change
mets
coils
producer
invoked
arx
supr
specifications
criticality
##orescence
learned
experiencing
manifests
exceeded
hera
alkyl
pipelines
nadph
altitudes
auditory
cohesive
750
mating
ration
s2
sag
wec
xy
##uper
##table
##worth
##omet
enj
reef
alice
modality
leaching
##istan
##oney
1500
combat
galact
acidosis
phosphatid
hypertherm
transformers
distinction
patterned
mirnas
##omyces
imposes
multicomponent
databases
compartments
mandatory
polaritons
uhecrs
tuber
exerted
korea
b3
das
pam
##eu
##foli
##54
##onia
##edy
inos
proc
##adic
spike
trac
interle
lowers
thermochemical
superl
112
worked
moore
monoton
mats
propell
##azine
digest
retros
lactating
cathodes
diagnosed
fertilizers
intermittency
terrain
wormhole
##ripts
geomagnetic
prompted
foll
hamm
iq
##oul
##uption
intric
##plectic
sport
##physical
alloster
insoluble
quanta
##exia
infected
grey
##versy
muscular
linkage
interpolation
280
accumulating
tubular
mathematically
differentiate
puzzle
hindered
terminals
controversy
modalities
nasa
bioref
aggressive
institutional
unbalanced
2h
gyro
ij
ile
ward
##o4
##tem
##ona
##inities
##anda
leuc
unim
timely
butter
pathology
edible
functionalized
centrality
climates
persists
cdte
homeostatic
piece
##ikes
bilayers
envelopes
submitted
cachexia
melanocortin
cadmium
ladder
biochar
dephasing
recruitment
scholars
2e
cited
lange
mec
moth
mart
##tps
allocated
electromagn
protost
matters
geo
globular
##afe
liquef
220
##luster
reflections
mobilization
tea
crystallography
governance
chromophore
innovations
coincide
accessibility
##enko
macromolecular
angiogenesis
photodetectors
biocompatibility
bj
fibr
ffa
pms
##van
##98
inactivity
##arri
##urational
##idt
revenue
antine
comment
spitzer
modulates
interactive
adulth
seab
thermost
##ovalent
outward
loos
schott
phenol
depressive
encode
copolymer
arginine
mediator
tele
rfid
sharply
lamp
lamps
sarcop
retriev
professional
glacier
anatomical
spatiotemporal
adulthood
bend
bari
c1
kk
kb
sac
ssc
tides
##p1
##hi
##but
##zo
ask
##tinger
truly
impulsive
formate
powering
arid
decoupled
photometry
locking
##ubov
defective
mont
lift
fermil
hydrogenation
glucagon
estrogen
fixing
faec
cdw
hemat
neighbors
dsscs
##lasts
clarified
##aughter
multimedia
equilibration
plethora
bcc
border
card
folate
tent
##words
##iton
tol
##emically
whom
##ichlet
##chi
scoring
invis
demographic
bland
leaders
remediation
protects
localised
instances
functionalization
postmen
agreed
dipoles
cdse
tritium
nanometers
merely
lagrange
stretched
wakefield
##enchym
intergalactic
rhythm
unravel
dwell
##whe
##artition
##eterm
prokary
##siveness
##utely
compressibility
##rile
perennial
photorecept
charmon
##flav
dirichlet
##bruary
inducible
ionosphere
sensed
advection
specification
succeed
propion
guest
achievements
vacua
richard
horizons
transloc
catheter
cerevis
ldl
instanton
stripe
inserted
eyes
semimetal
agonist
agonists
zigzag
pieces
noninvasive
rehabilitation
550
lq
##08
##pinning
think
##inf
##inting
##analysis
exterior
##amped
##optim
##chl
interband
##atern
heater
curing
investigators
brand
identi
##away
spectroscop
antigen
helping
extrusion
entre
breakup
positioned
dissimil
olive
passenger
1966
textures
flavors
bolometric
##itious
submill
colony
gathering
surfactants
##penheimer
destroyed
##otrophs
broadcast
schools
arxiv
cerevisiae
hcl
mari
oa
##wall
##77
##isper
##ete
aln
##utch
residence
lew
leuk
formally
proves
noticed
february
disconn
facult
vibrating
miller
games
implied
pcms
august
catalyzes
myocardium
encouraged
taxa
bangl
##integration
niche
dehydration
unexplored
proliferator
gamm
tonn
wax
##kov
##bon
ready
phyc
coher
##tebr
biosynthetic
obstr
nox
##ropor
operative
globe
endos
parameterized
establishes
engineer
epic
runoff
agrp
3000
intermetallic
cereals
collaborations
monolith
pelvic
renders
forestry
wavenumber
superstring
piston
republic
mathematics
noisy
bovine
postmenopausal
biph
coch
gem
jup
rose
senes
##enberg
##trium
chp
diatomic
##aple
cole
recru
incremental
accident
cart
##even
mofs
monoph
promises
shortening
biomolecular
phospho
trait
polyun
saline
boiling
##whel
squee
eigenm
manipulating
synchronized
intersection
phytase
##hythm
registered
navigation
wmap
rearrangement
ricci
witnessed
thromb
fermilab
cup
fos
hans
jack
lk
nag
tap
tca
ud
##ser
##yi
##56
##inflamm
strom
chr
##apunov
strained
unhealth
detonation
allen
##uncture
##grav
overwhel
blo
##brids
plastics
symplectic
##issociation
dams
glycop
governs
mediates
802
converges
differentiated
distinguishing
switchgrass
##vdc
kaon
formulae
drainage
immobilization
triacylglycerol
hibern
entrepr
bangladesh
hα
killing
mps
sort
tis
wur
welf
##nan
##with
##tian
##atching
##icin
##eta
beach
chim
##rometers
##apidity
neumann
##ande
aps
overc
magne
calves
scalars
thermonuclear
subcl
upregulated
##rell
spintronic
grounds
##sibly
heterotrophic
nanoshe
copd
flexural
bmr
slowing
temporary
disturbed
coincident
declines
incompati
somatic
percolation
bigger
commodity
weinberg
schottky
polyunsaturated
entreprene
daw
gab
nj
render
##nik
##hr
##work
reorgan
anatase
phone
##endocrine
recons
cargo
biophysical
##ancer
accelerates
crossed
testosterone
antibody
colored
phosphors
tee
vanish
commercialization
ramp
milky
merid
chaper
lumen
repetitive
ketone
justified
electrocatalysts
citrate
subspace
juvenile
luttinger
dereg
decisive
antineutr
welfare
gestation
mq
tbi
##west
##ala
##asic
##inge
##ffective
spi
modulators
##chair
##formed
ems
aband
brack
volatility
confound
infarc
door
estimations
harb
##uminous
paired
clustered
propagator
tensors
src
photocurrent
revised
refraction
legumes
divergences
##anthus
sweep
##uclides
thompson
printed
girls
pathophysiology
2c
gtp
lte
##rect
##pase
##tib
##aran
comorb
resemb
graf
approached
designated
dress
confron
irreduc
erup
influx
21st
snap
pvdf
nambu
equivalents
equivalently
declining
wimps
dichro
dichalcogen
akt
pursued
vertebrates
miniaturization
corrobor
coagulation
molybden
bacillus
cem
ccd
fw
file
lots
mole
tab
inex
##icz
##ationary
##etti
spaced
trich
adds
lepr
##ionine
cartil
imported
sofc
dependences
outage
moved
137
##fully
symbiotic
attentions
sustaining
skew
##ivalent
reproducibility
dissem
##efined
1967
refract
ldh
interferometry
parasitic
gratings
tropos
langevin
unhealthy
fg
hors
kre
nw
pce
sid
##vascular
##rum
##85
inward
##ett
envision
onboard
depar
para
parti
recurrence
##assemb
sublat
foundations
inductance
carbonyl
##elson
correspondingly
blackbody
ilc
polymerase
reproducible
simplify
undergone
artifacts
portal
ribosomal
doubt
interferometer
bringing
traumatic
discontinuity
hampered
chickens
rabbit
parametrization
detachment
pendulum
catastrophic
uncontrolled
sarcopenia
tonnes
ero
ok
pon
pile
rl
uf
ure
##train
##osaccharides
exothermic
stabilities
rear
##sities
##plac
orange
##oprop
adversely
electrification
timber
##adiabatic
nonradi
brake
confocal
organelle
iris
doe
shortly
keywords
rapamycin
##orphic
dissipating
##ething
ambitious
methylation
diluted
unsolved
dosimetry
submerg
templates
australian
thrus
something
lyapunov
assistance
rendering
multiphoton
schwinger
physrevlett
molybdenum
cig
gels
jord
rim
ruled
tam
witten
##vised
##kind
##µm
bean
##aday
chi
chest
spor
coff
undulator
micronutrients
curie
multiply
steat
arrest
substorm
views
mutagen
violated
branched
smoothly
##limited
steroid
citi
xray
parasites
iea
ckd
superfamily
upgraded
logistics
hemicellulose
strangeness
gsh
p53
rst
sonic
##eb
##pb
##87
##zk
##regn
##standing
quest
ito
seiz
##arded
biases
overlo
paul
thermogenic
vertices
dependencies
firms
determinations
helices
##110
convinc
lacks
equipartition
blocked
glassy
pseudoscalar
interpretations
piglets
tails
manipulated
silicate
dosage
neuropeptide
rrna
viruses
biosensors
convenience
fgf21
unnecess
thylakoid
##olerance
lg
lan
pedi
qft
sfr
xuv
##gers
##acces
trna
strat
unve
recre
genu
twofold
valle
atomically
responsibility
eleg
phenolic
facet
broadened
laplac
cdf
attributable
societal
hadronization
invertebr
screw
borne
##rystal
mineralization
taiw
##cnt
logarithm
floquet
t2d
ships
vulnerability
gathered
lobe
kingdom
mexico
##plantation
centrifugal
epigenetic
bist
cit
fibrillation
mother
sip
##ja
##js
##benz
##orter
stagg
##oub
diast
consor
cook
coenzyme
##avail
thereafter
biotic
photosphere
requests
poinc
conditional
##ieties
predictors
conductivities
phosphatase
##ship
epa
naive
denote
##urrently
pufa
terminus
compromising
ripple
##yaev
gallium
biotechnology
shrinkage
2þ
aip
cps
gga
naph
rac
tread
va
##99
##ye
##pack
##eners
##align
##ulae
spall
##chlor
pars
incur
plain
##ensen
embod
cellulosic
##ishment
sinks
harder
teeth
magnetospheric
femur
##fatin
rutile
tetra
eliminates
responds
convey
##ozyg
declined
herbiv
redundancy
contradict
nanofibers
austenite
lunar
bump
coded
kur
rv
rud
##41
##kins
##tt
##fish
##bd
##arel
##isations
##oder
trains
##optic
##ifier
oppenheimer
##teness
##oves
spectrally
bra
crossings
snps
fibrosis
##lusters
photoacoustic
closing
clearance
##neys
predictable
squares
dyslipidemia
1964
comprehensi
collaborative
exchanged
cultivars
cancel
repeatedly
aided
parasite
stranded
appreciable
hunting
acetic
mc4r
upconversion
cpt
gf
kam
kumar
lst
mdr
nls
##rag
##enoids
##urgical
exfoli
##ectomy
eld
assemble
methodological
corne
electronically
upregulation
moieties
hydroelectric
##leds
affinities
engaged
##ograms
hyperph
##factors
homogenous
pss
cytokine
dmi
fabricating
compensatory
dissociative
haem
circularly
relaying
fpga
disrupted
bohm
stomach
geodesic
##oblast
palladium
biogeochemical
##ynchronous
magnetron
dan
dum
ders
gang
gpr
pod
##rf
##tail
##pots
##bing
##66
thinking
##ref
##eland
##acular
##ilinear
adc
##ensed
flue
smbh
outlet
##venues
volunt
preceding
impacted
ultral
averages
lipogenesis
##gret
searched
laplace
fragility
sunyaev
pseudop
dusty
legal
graded
merits
isoform
vertebral
suffering
compressor
threedimensional
diversification
micror
emulsions
poincare
egret
fog
mush
ost
qc
splic
##f1
##hbach
##icate
##entation
##omechanical
##ulature
fort
forty
##agues
##thing
##ello
liou
photothermal
equals
pah
blu
sintered
avoids
suggestion
realizations
discussing
reproducing
pdms
forwarding
substitu
migratory
saved
programmes
pellet
riess
messenger
rigorously
conjectured
juice
torsional
nicotin
lps
tide
vuv
york
##fly
##zi
##lyp
##otential
##perature
trab
parental
##unte
quatern
sees
format
##ropical
practition
actors
postpart
industrialized
restricting
myel
flatness
pseudor
eigenfunctions
tmds
ceo
programmable
flywhe
deconfined
archaea
untreated
agglom
photoelectrochemical
nanoribbons
superhydrophobic
inositol
propionate
cartilage
laplacian
aq
caf
dgs
ek
tann
##oacet
##nts
##elets
sts
stun
##ampl
als
##stad
##romes
perl
simons
overcoming
##bras
descent
volunte
maturity
##icks
spectrometers
alongside
daylight
fabian
mutually
crucially
chromosome
pseudomonas
opportunistic
shares
smoke
nitrite
marginally
excluding
reciproc
progenitors
disappearance
transcriptome
phylogenetic
lobes
delocalization
stereo
sweden
nonuniform
legislation
adrenal
lewis
irreducible
cyp
dar
hvdc
ih
lds
sob
##atable
##isch
beige
##otation
anabolic
chel
parker
adr
impacting
meets
alloc
biochemistry
123
pathologies
humid
precession
ecm
bioavail
princip
entails
taste
implication
##olecule
admit
decompos
formaldehyde
degeneration
##interacting
hydride
alcoholic
fertilization
conjugation
strept
restoring
ingested
electrocatalytic
compactification
noticeable
phospholipid
multiplexing
pierre
depolarization
succinate
recrystallization
postpartum
fused
joule
lenn
##v1
##kinetic
##rine
##fet
##73
##onit
##onduc
##entic
##rost
tolu
beef
stator
trypt
disaster
reco
nonadiabatic
hybrids
butyrate
transitional
##axis
drip
polarizability
engage
seeks
epile
mobil
boos
nanofluids
circuitry
agnps
cylinders
ribo
fluorine
scintillators
fulfilled
boosted
anchoring
illuminated
pqcd
densely
sirt1
##ultipl
fibroblasts
mantle
lethal
infarction
980
ebl
hts
ome
pcs
qi
tables
tpc
vag
wp
##bro
##zy
##200
##orestation
##ecks
usable
incomm
##una
relays
##pheres
micrometer
supram
moiety
microarr
symbi
depots
configurational
reflective
constituted
incorrect
summation
transcripts
icf
progresses
browning
replica
stopped
osteoporotic
larval
wormholes
incentive
paste
monochrom
necessitates
funnel
pomeron
reprogramming
photomultipl
charmonium
jordan
spallation
ao
dms
nut
pup
pka
µg
##bee
##elan
envis
conce
##terine
ascertain
beings
##irds
detox
##earing
thermogr
leader
carbons
monitors
##ycl
synt
inflow
geop
antiquark
barley
adipogenesis
denitr
arcuate
adjustments
tips
seemingly
margin
truncation
assimil
colleagues
enclosed
phospholipids
washing
schmidt
avalanche
unpredictable
detergent
intricate
dros
got
kalu
mch
mons
money
##xs
entity
##imide
staff
phb
phev
decide
##obut
micronutrient
subdi
115
126
1200
precious
vein
continuation
##ropha
pairwise
managers
fracturing
physiologic
permitted
interpreting
boys
neutralino
diffract
fillers
ribosome
grasses
prevailing
cassava
##brevi
reagents
featuring
zirconia
kyoto
##cooled
trabec
hes
wors
##eh
##97
##feeding
##onomy
##accept
proxy
anesth
reside
deoxy
metrop
unaff
##enda
##pher
undoped
abbrevi
nont
biosphere
##engers
colloids
discs
geor
slices
endoc
injector
annular
satur
aeration
admits
dysregulation
publishing
convergent
hydroxide
preserves
doubled
dimerization
polymorphisms
rabbits
pancreas
cowork
bundles
##rograph
pocket
tellur
hypoglycemia
##absorption
acknowledged
##inflammatory
nonradiative
unnecessary
d1
pine
yan
zro
##oft
##liness
##ali
##acin
##plastic
strands
incin
magnon
frank
thermoc
outbursts
superim
##arging
excav
monod
basins
kepler
shortest
heterod
situated
preparing
hemorrh
norms
confirmation
odds
exhaustive
interconnection
constructions
photodiod
stocks
territory
feshbach
backscattering
professionals
elaborate
tricarboxylic
bombardment
phosphatidyl
valleys
##arelativistic
thermograv
ken
lsp
nu
peng
##rg
##functional
##har
##tish
##isco
##urry
areal
tracing
trunk
##opter
phas
imaged
adatoms
coars
seps
recalc
##ipolar
108
expert
cellul
request
##oven
proposing
remot
beamforming
delamination
estu
phosphates
quarkonium
polluted
eventual
analysing
motivate
reactant
hemoglobin
deviate
artificially
absorbance
rabi
ancillary
##polarized
##hydroxy
bogoli
byproducts
prognosis
scaffold
gluconeogenesis
drosophila
coworkers
bot
e3
him
hap
lpl
sas
##ht
##arine
##icc
##ulder
##tinent
##quinone
prism
flaring
solves
##yps
concurrently
nanoph
pools
122
mof
constrains
irs
maximally
oxidant
ultrarelativistic
silk
marketing
axions
##aham
magnetar
indexes
initiative
cytotoxic
recognised
occupant
eigenstate
virtue
hydrates
responding
hydrophobicity
controllability
anticancer
ejections
photodissociation
tangential
unavail
homologous
dictated
miscanthus
##okinase
offloading
gestational
monotonically
mothers
##optimal
dichroism
supramolecular
3p
bam
hpc
jumps
tac
yog
##aut
##nr
##nis
inject
##eli
##amme
shan
shading
solver
heifers
##iller
methionine
french
subwavelength
obtains
defibrillation
136
evaluates
linearity
tunability
##uminal
universally
squark
adopts
calorimeters
https
looks
##activated
deduce
pushing
innate
nonmagnetic
porphyrin
prototypical
ovarian
renovation
combinatorial
coffee
treadmill
principally
tryptoph
bak
bark
dash
kines
xanth
##rad
##bium
##etre
##idi
chit
##aya
dielectrics
##uning
##rie
unequ
##formin
##ourished
email
noninteracting
proteome
superflu
##control
endoplasmic
stressors
dampers
barotropic
player
##valent
cooler
gravitating
retaining
cao
005
tracker
compactness
sounds
##partate
##book
medicinal
bridging
joining
interfering
arteries
hospit
ductile
penetrating
fecal
encompasses
mysterious
arsenic
rectifier
emissivity
martens
richardson
senescence
nanosheets
citizens
650
dod
hens
nest
nash
roy
wpt
##waters
inacces
##uce
##ocl
pha
nefa
##ectral
adherence
recirc
reconc
ams
contours
locus
worksh
slc
##afs
##ophysics
##tructuring
patterning
##ombic
adapting
runaway
book
histone
chromosphere
technologically
begun
mammary
devised
interconnect
microcanonical
cytosol
covalently
thomson
russian
disagre
catechol
tracers
invisible
blandford
glycopro
horses
comprehensively
bogoliubov
ces
dns
iib
sut
∼0
##cine
##pal
ofdm
##acene
anoxic
interparticle
unmann
transpiration
##athy
##ospheres
serial
circle
lhcii
analogs
chlorine
platelet
preferable
translates
##anthin
##lycemic
tilted
burnout
beverage
banks
gravitationally
encapsulated
robotics
biotechn
prosum
upgrading
saccharomyces
eigenmodes
taiwan
unmanned
cou
cbm
flying
gri
nin
rnas
tone
##kes
##ryp
##bt
##®c
##olk
depressed
inten
intolerance
##ondon
overpotential
photochemistry
polyst
polyt
peo
##ogeneration
antibodies
##azol
immense
argu
replen
coordinating
renormalizable
circumvent
metastasis
mppt
minority
maxwellian
sedimentation
exclude
osmosis
committe
hyperthermia
reorganization
bonn
cele
dun
pso
##ny
##ji
aster
trp
adatom
metformin
plume
uneven
clues
equality
insulated
mines
135
responsiveness
setups
##insulin
sensitivities
polarizations
landing
separates
facets
injections
arrhythm
switzer
interpol
sales
glycemic
002
squid
instruction
counteract
violent
beside
translated
nitrides
granules
adolescent
tanks
elongated
hepatocytes
benthic
phosphorylated
orbiting
scanner
cladding
kaluza
unaffected
polystyrene
3−
p3
pestic
wigg
thail
##ersion
##isa
##ostic
ali
##sile
##quist
hev
magnons
radiations
aggrav
firing
##parallel
occlusion
slit
ende
universities
factories
intraven
knowing
heteroc
retro
calorimetric
5000
pyram
silicene
waiting
dsr
zhao
fronts
adsorbents
nebulae
losing
vesicle
pathophysiological
cusp
pockets
multipole
revisit
scavenging
pakistan
jupiter
voluntary
thailand
aj
bones
dq
fox
folds
hect
lately
lss
nothing
sizable
##3k
##72
thio
##icti
##asse
tob
##eme
suitably
modulator
pertinent
grant
estr
descript
multis
lightning
estimator
graphitic
suction
implos
kinematical
##energic
removes
occupational
belief
##biased
scheduled
mason
bilateral
##rocyte
##ophagy
springs
weekly
shedding
capsule
bleaching
spatio
commodities
1960s
hippocampus
##oprotective
isotropy
genuine
lennard
switzerland
intravenous
atr
ale
cta
densi
##zyn
##acs
aside
##amel
devel
dio
italian
##akis
scru
##uchy
clark
undet
##tedly
##ropri
oxal
fires
brach
##ylic
finishing
microf
concentrates
deline
maximizes
factorial
helped
creative
profitability
skeleton
fluidized
magnetars
fabr
expended
synthesizing
tetrahedral
##cience
##obacterial
eeg
authorities
adolescence
intensification
discontinuities
markovian
dfig
compactified
bohr
retrofit
deconfinement
aviation
coercivity
practitioners
4π
850
aids
bg
doll
gad
gzk
jun
m1
##tw
##pon
##anov
##lyl
##umb
withstand
dew
inclusions
unlimited
unbiased
##atization
assets
frw
##eps
effector
syngas
edm
container
nutritive
ecs
closest
daytime
radially
cauchy
lai
pseudoc
tailor
hydrated
keeps
##oproteins
multich
projectiles
parametrized
polynomials
obscured
extrapolated
divertor
microfluidic
opinion
enjoy
retrospective
allosteric
identities
recruited
diastolic
liouville
celebr
scrutin
bard
mcs
sgs
##02
##96
##eno
##oment
entered
##uses
staining
##umn
spill
elm
##ermann
cofactors
scf
relied
deser
simul
unders
nonpolar
##rows
valves
concordance
director
singh
organizing
affine
primitive
##ophyll
fermented
##zymes
linker
halogen
postoperative
aspir
adjoint
boilers
accessed
astro
phononic
occupies
travelling
organizational
##rologic
seemed
street
discharged
disrupt
lignocellulose
neuroprot
##opsin
effluent
sweetened
inequalities
fibrous
retrofitting
carotenoids
hydrogels
teachers
wedge
b3lyp
wurtz
dichalcogenides
toluene
trabecular
derm
gg
gov
hir
hers
hco
ment
ny
##aud
##rate
##mg
##pyr
##58
##wt
##tise
##itone
##abino
deh
degrades
atrophy
##ayan
apt
scene
##ignific
transce
proving
pahs
suboptimal
radiography
multilevel
heats
steers
propensity
strengthened
tendon
smoothing
wrong
orthorh
ribbons
zhou
balloon
doubling
histories
roads
terminated
tractable
exceptionally
territor
loses
underestimated
isotherms
##ocytosis
rebound
interleuk
incommensurate
wurtzite
pde
puts
rights
session
tion
##06
##life
##prop
##2o
##role
##asters
stagn
reorient
##tino
resemble
modulations
unrelated
gras
nonst
##obium
preterm
thermoplastic
##ensitivity
schiz
peer
slurry
pressur
influential
receives
maximized
airborne
existed
amplify
labelled
fractionation
salient
motivates
pdfs
##omerization
reinforcing
permeation
autonomy
gpu
##vinyl
ineffective
frontal
hosting
lags
isomerization
attitude
interviews
lkb1
refractory
pseudorapidity
recalcitr
committee
2g
b2
rq
sis
sant
tether
##matic
##eries
##orld
##osal
##ago
suz
item
pervasive
solenoid
##atitis
signi
##pta
radios
radiating
proteomic
fuk
##oxia
loose
spectacular
eruption
copolymers
histological
initiating
safely
complication
coulombic
mirna
phenomenologically
##recip
diminishing
anionic
mfcs
##yroidism
biodegradation
dicke
symbol
elaborated
parkinson
occasionally
pzt
entrepreneur
embodied
remotely
orthorhombic
bsm
cant
cep
gulf
jar
ted
thym
##lygin
stan
spind
##chel
sevent
etch
ame
##ypes
##oblasts
smb
lock
##issner
classroom
voltamme
snp
photoin
−10
##asculature
telev
shearing
uncor
violations
flavon
symptom
holistic
tropics
intensified
ffq
adsorbate
disappears
reversibility
shoulder
pemfc
tibia
1063
unbounded
depicted
monolithic
overwhelming
arguably
aun
c57
dha
lunch
london
ππ
##aj
##nf
toy
##osm
beet
reacting
##ocin
spaw
trust
phthal
diaz
##iber
disinf
inclined
seal
clumps
undoub
cortis
observers
crp
poison
multist
selenium
microph
realised
grew
precon
utilised
symmetrical
corrug
employees
bulky
expenditures
dissol
tumours
fouling
thirds
decompose
1963
1962
fishes
neglecting
morning
neuroendocrine
##gluc
interconnects
thorac
pparγ
sorting
urgently
afterglows
epithelium
chaplygin
##rogate
uavs
systolic
omega
tryptophan
hospitals
martensite
cq
fano
gard
##km
##rotic
beat
beac
101
##pheric
amide
invasion
decoding
decarbon
specify
thermoreg
commensurate
selen
##drug
builds
gravimetric
crosslink
acidification
##hea
conditioned
nitros
exercises
##inosa
divide
evaporative
pyrid
diverges
periphery
arrive
payload
##ardia
locomotor
ferromagnet
fullerenes
enterprise
collapsing
cardiomyocytes
ranking
enlarged
etiology
##flavin
comorbidities
envisioned
flywheel
inaccessible
b1
fen
fok
gfp
hst
iw
moss
pscs
trough
wecs
zw
##nn
##mod
##lers
##lable
congr
##cephal
sund
disasters
genera
underdoped
equator
##tensi
commutative
knots
optimised
locality
localize
##axanthin
baroc
lastly
pasture
polyvinyl
restricts
lhcb
derives
fragile
nanoclusters
adaptability
acquiring
waterm
titania
rodent
fluorophores
dealt
phosphorene
pyroph
bisph
diagonalization
effluents
bfkl
##nett
lubrication
commissioning
xylanase
sessions
mystery
unambiguously
dubbed
snacks
volcanic
ambiguity
nicotinamide
developer
interleukin
bcl
c3
d3
dol
gol
het
kas
kom
kag
kah
sure
sfa
vh
youth
##mation
##onym
##inted
##aldehyde
inapp
ingaas
enamel
##idase
##imid
##amines
##unication
uni
desicc
overcomes
sma
collide
128
defence
geost
advancing
autocor
probiotic
connects
successes
nitro
linkages
encryp
posture
##igenous
participated
lactose
migrate
##ocaloric
misalign
encounters
inherited
undesired
amylase
amyloid
rheological
anchor
immobilized
tillage
conflicts
centim
incompatible
incineration
dox
fq
iia
jamming
pir
vb
##cus
##rig
##91
##fol
##arti
##idene
##idae
sta
##seed
cheng
##plane
##ocellular
phe
disent
##ensors
##illi
decided
esa
glue
##gans
monomeric
fueled
##insky
##ophosph
##ohex
perturbatively
immersion
definitive
constituting
acetone
explosives
pyridine
suppliers
administr
cognition
baff
fluorophore
implantable
holstein
fsr
comfortable
kidneys
dispropor
informed
kernels
pwm
pushed
iodide
bowel
passivation
automobiles
##ineries
inaccurate
anorexia
uwb
confronted
steatosis
bats
cec
dors
hcc
hof
nk
rov
##c2
##uz
##uin
##rd
##95
##d1
##ony
##onine
##arum
##elve
##imers
aspartate
##opol
interrup
##akers
##ensor
clath
formations
##grid
overd
photophysical
frp
sublim
calculates
##atics
yearly
continually
##ierls
strengthen
stepwise
downlink
photoelectric
beneath
planting
pva
delivers
priorities
##eralization
genetics
complemented
brightest
droop
cryo
thiol
collimation
register
fisheries
##piece
firmly
fermentable
purchase
offline
neurotransmitter
neighbouring
##mutter
bioenergetics
submillimeter
consortium
perlmutter
superfluidity
aes
aor
bid
mbe
nether
ruth
vlas
##aa
##pet
##hn
theme
##ito
resides
##agia
##ocs
unrel
solutes
102
twelve
carn
photodynamic
abstraction
agenda
optimality
flowers
geophysical
swine
galer
##deg
##ographs
mgs
polluting
poorer
conformers
srs
systematics
1961
rosat
paradig
preventive
dividing
constructs
colonies
microbiome
benchmarks
returned
pinch
subcellular
rmr
questionnaires
reverber
monoclinic
shuttle
multiphase
harnessing
korean
geodesics
byproduct
attitudes
philos
answers
pediatric
pseudopotential
##omentum
c57bl
cats
hpa
lute
nuts
tier
##ea
##cf
##cul
##top
##61
##erom
##iteness
##ectious
##tress
proline
##imp
##abi
weap
##onsum
208
adver
leed
underway
soi
blending
reprocess
prototypes
inductor
peierls
violet
belle
polarisation
grouped
cerium
correcting
hypotherm
preparations
accumulates
authentic
physiologically
##coal
southe
dyson
neglect
wheels
tsun
degeneracies
personnel
lyman
zigbee
acclimation
mutagenesis
##zynski
##ignificant
cortisol
inappropri
paradigms
dcs
fcs
nemat
sak
song
sax
vt
vf
wf
##iors
##ua
##01
##bauer
##−1
##road
##issible
##iline
##adal
##oud
shel
elite
leis
##riad
##illion
abol
##ucleotide
electrom
##triction
fins
galile
##ophren
centrally
randomness
##ethane
cytotoxicity
favoring
ligo
triangle
caspase
neurot
steric
zhu
permeable
autonomic
epochs
obeys
##ocyanin
antagonist
wolf
hydrogel
##periodic
telecommunication
irreversibility
contradictory
adrenergic
##onitrile
schizophren
netherlands
dates
eev
gis
ki
kita
rug
wis
µs
−8
##kp
##f2
##zh
##eted
##amy
resins
##ocrea
speak
prand
relief
transplantation
104
##istor
##gra
reductive
prep
cran
calving
fee
blot
blank
excip
##ishable
medial
realm
stressful
airflow
eclip
reflector
teg
nanoporous
crystallite
initiates
isolates
srtio
microscale
depleting
portfol
stacks
proximate
psychiatric
colonization
ruminant
campus
shoot
##oremediation
##skii
intracluster
dendritic
encapsulation
conveniently
aberration
peroxidation
queue
disparity
amenable
cytoskeleton
imperfect
retrieved
survivors
submerged
staggered
microarray
biotechnological
fabrics
galerkin
portfolio
dor
fear
hint
ics
mouth
qpo
##lich
##omfort
##etting
asynchronous
rew
##amoto
##sey
chd
spans
##uded
2025
metering
coke
scot
unphysical
evanes
allele
arres
posts
thermos
agb
capping
consumptions
characterisation
metabolomics
carbonaceous
preclud
demanded
climat
referring
intrusion
ensured
permitting
martensi
##iously
320
electrodeposition
360
remainder
putting
tmr
recovering
transmitters
strips
omn
hysteretic
compliant
##omplex
rhythms
arthritis
bearings
dexa
crushing
inhabit
appendix
monsoon
densification
undoubtedly
vlasov
hints
igm
kine
kick
lem
mfc
sided
tke
##nings
##drop
##hop
##bell
##zn
##rote
asked
beij
anemia
algan
##adder
##aga
chitin
weighting
apex
quartic
percept
aryl
submic
subdom
oxy
superhe
brun
metabolized
seroton
infeld
infectious
oxidored
##uginosa
profitable
funding
bulge
resident
macronutrients
aeruginosa
neuros
##efin
microsecond
1965
displaying
mimicking
lambs
safer
4000
penrose
beds
llc
##unications
bbb
entrain
murine
vertebrate
intimately
nesfatin
underlie
biorefinery
butterfly
sepsis
chitosan
television
epr
fto
hon
oven
pks
sine
tect
tga
yl
##mi
##mar
##gg
##jo
##lock
conception
acup
##chain
interdisciplinary
impregn
relativ
unobs
detects
expects
agar
newborn
proteomics
ionisation
peaking
16s
standpoint
autumn
appliance
glucos
channeling
pollen
polyg
classifier
simplification
motivations
egfr
trafficking
puber
octahedral
ukr
duplic
kaons
emphasizes
hinder
voice
executed
oblique
##urgy
elastomer
stretchable
ratings
reconfiguration
flowering
chemisorption
rxte
microtubule
smartphones
retrieval
##butyrate
monophosphate
bioavailability
envisaged
aesth
rw
sab
sers
sie
wish
xf
∼2
##51
##−x
##acu
conceived
foref
##iment
##ilient
##ague
atg
adh
##enson
103
maneu
undernutrition
##ferro
smok
charcoal
disclos
characters
118
multipath
singly
131
##ycardia
optimizations
observatories
spinel
##awatt
peat
delicate
visibility
steeper
wideband
##article
ensuing
satisfactor
ptfe
percentages
pmf
pmma
##clim
owned
petrochemical
interferometric
strike
armchair
pyth
rpm
retardation
shadow
shadowing
buffering
spurious
homogenization
telecommunications
yttrium
taurine
##enchymal
agglomeration
satisfactorily
ay
foli
god
mbs
n2
rid
wings
##kar
##tons
##far
##67
##onant
##asions
##ulative
##imov
exceptions
##otomy
##utativity
chief
spps
spikes
disulfide
incon
20th
query
scfa
pertaining
twinning
manet
##obacillus
frail
crc
subtraction
##vier
bron
brine
brush
dressed
edema
2500
biomaterials
phosphocrea
downregulated
labour
labels
conceptually
foils
microwaves
narrower
splittings
adequacy
silicone
visualize
augment
transports
habitual
misf
sexes
pelagic
explorer
aquac
lifestyles
suffered
subtropical
collapses
davis
superficial
electrochemistry
orexin
exacerbated
aharonov
##temperature
quaternary
##pherical
voltammetry
schizophrenia
martensitic
phosphocreatine
ais
cure
cages
cogeneration
dal
dss
hither
loci
lbm
nws
pcc
qh
sect
yolk
##ois
##iard
##ries
##64
##63
##ecd
isobar
##odon
staple
whit
chal
perce
productions
timelike
crises
curtail
muller
limbs
##vice
multiwavelength
neutrality
##psy
microelectronics
slabs
topographic
minimizers
critic
refining
rotate
contrasting
##otherapeu
guan
radon
psd
assembl
investors
substitutions
infinites
segmented
recommendation
wrink
deformable
predomin
footprints
wildlife
##iphatic
cbf
ventricle
##ahedra
collimator
sofcs
carboxylic
symbion
plaque
electrophysi
##tidine
subgroup
leucine
coherently
hibernation
riboflavin
symbiosis
celebrated
jin
jiang
nasc
pdes
##iop
##kev
##keletal
##kinson
##nia
##gian
##sing
##p2
##itters
##asure
##actical
##ulence
stones
##quin
##udi
neph
plac
##avour
##inde
timed
manually
indigenous
nonren
expenses
##ropic
mainstream
mould
scatterings
negoti
quasic
postulate
thicker
immature
torques
calorific
seeding
tailoring
##sky
installing
instantons
algebras
premise
polypeptides
##aught
civilization
ferromagnets
piecewise
vdw
antineutrino
eruptions
krebs
elegant
detoxification
aortic
philosoph
advertis
beijing
hitherto
aro
foster
fuse
jat
mens
nv
nap
nss
rog
tx
tsc
−7
##ey
##rw
##nourished
##mt
##62
##alanine
##edial
##aco
##acco
##osel
##vex
##ustain
##usions
onshore
ana
##ifold
scanned
unid
unpolarized
evans
regim
##onding
surpass
noether
feeling
114
133
##aws
slice
swcnts
primer
##upole
faraday
weakening
musculos
hyperon
hyperinsulin
mgb
270
virgin
myriad
instructions
ambiguous
fishing
impairments
friendliness
ssb
stripes
intensif
rubisco
rationale
diamagnetic
##ozoa
lacs
implements
fifty
nova
##acrylate
contracts
tonb
garnet
landfills
electrophoresis
zeolites
hippocampal
exemplified
prosthetic
photoexcitation
hotspot
disproportion
jatropha
2deg
euc
oocytes
pree
vc
##ault
##isot
isoc
stear
##umping
anodic
resilient
##ureth
divalent
cane
metrology
intention
diffe
##adiol
##roll
calculus
deforestation
serca
microch
heaters
slaughter
spectroph
##under
dissipates
gravitons
propagated
##ahyd
breakage
microbe
extremity
parallelism
photocath
violate
invested
mitigated
wetland
billions
suppressor
stops
checked
audio
honey
pursue
precipitate
cardiomyopathy
reconfigurable
detached
emulsi
rescue
tagged
superluminal
dissemination
inappropriate
exciplex
musculoskeletal
akin
avenue
cuc
csm
eo
hoh
mud
tied
##fets
##88
##anos
##rep
beads
aliphatic
chor
trif
neel
legs
quoti
##aks
##ostat
desert
##phrine
amines
mankind
decouple
##oleic
escal
poloidal
##iley
radiate
depended
willing
##oxane
geant
industr
kek
##ogenerated
shortages
graphical
brook
hydrogenated
hydrogenase
profits
snia
magnetoc
entropies
myof
articular
ligament
illustration
opposing
rosen
rocket
ortho
orthop
buses
british
recycle
lorentzian
sphing
merge
imagery
burned
multilayers
academ
knockdown
polysaccharide
pedot
reversibly
ltd
hypersurface
eutectic
uncovered
elicit
roofs
radionuclides
nursing
multiplication
alexander
ileal
loosely
sublattice
thermogravimetric
griff
forefront
aquaculture
cave
gbs
hw
jahn
kan
qol
t3
##oors
##itis
##nl
##inform
isop
asth
##abrication
whate
acm
orches
shen
imid
neut
intercept
interchange
canal
unaccept
##ologous
##estone
solder
##ache
##agneti
##resolution
##eworld
photoch
##olev
1152
knot
multiferro
##ixed
confine
##entified
conversions
crosses
oxidize
handled
230
injured
atpases
meso
plank
runtime
restrictive
bmc
equipments
latin
splits
braneworld
translate
inferior
abnorm
stripping
ergodic
substitutional
sorb
laminated
typh
microprocess
elastomers
enclosure
stomatal
traversing
orexigenic
tariff
dissimilar
fokker
evanescent
serotonin
spectrophot
whatever
aero
dps
esi
gdr
hul
hatch
kon
lists
pdr
s0
sell
∆m
##450
##uel
##aic
##gel
##zar
##ila
##odialysis
##ithm
chow
ell
interdepend
transvers
##ourse
evoked
opa
abat
arn
##floor
crf
hydrology
1100
127
afterwards
eleven
endowed
viet
synthet
sensitively
loadings
biomechanical
radioisot
hyperm
pvn
permission
##apses
aerog
reasoning
cropping
pbe
icp
microspheres
depositing
narrowing
textiles
compensating
promoters
unsu
calibrate
escaping
lyso
antimatter
tesla
passively
contradic
outperform
##orthy
carotenoid
naked
towns
rearrangements
peroxidase
aharonian
justify
##ometabolic
propellant
hyperphagia
pseudocapac
311
dre
hcp
mts
mun
oleds
∆e
##free
##−s
##alo
##anal
##itage
##elin
##urization
bep
##abe
ress
##oping
elas
imports
coat
plann
unic
##ensely
clamp
notew
##obil
posi
provider
outlo
po0
repress
ministry
multidrug
##ixing
synech
electroactive
pulver
integrability
##ogenes
175
edl
contrasts
traverse
##tesian
dropped
proportionality
legume
wetlands
npq
metastatic
imager
lng
##eley
polymorphs
neuropeptides
chicks
palmit
implicitly
mucosal
compactif
forthcoming
impractical
resummation
prosthesis
dispersal
tubercul
##assembly
volunteers
unavailable
kagome
autocorrelation
kinetically
smokers
4h
bax
durable
eis
fans
gill
pth
pess
qws
rsm
ue
vib
∼100
##how
##65
##erent
##tii
##esh
##enh
##trate
##levant
enst
stays
antif
##ploid
dijet
##ifting
adf
cartesian
abb
nonh
##ounted
##flower
##oving
poyn
hydrol
nucleosome
113
129
distribute
##edicine
reminis
132
optimizes
ionospheric
spectrograph
crossl
feeder
vegf
separator
refine
marks
ferric
injecting
##airs
##aired
##loading
randall
##entia
metallurgy
attracts
tracked
prioriti
immuno
definitely
cathodic
ldos
anthr
gelatin
elucidating
clocks
mildly
synergy
multimode
pkc
catalogue
kinks
license
threonine
pavement
photoexcited
seamless
##obenzene
faecal
troposphere
tobacco
multichannel
##abinoid
sublimation
kitaev
noteworthy
aure
cet
dag
eet
kub
mms
nob
rut
vocal
##car
##uff
##rase
##itas
##tres
##imaging
story
chop
dismut
##ogether
elastically
mega
##ipt
##aryn
##phy
##ardt
##attering
photogenerated
franc
insec
blended
longest
drum
microcontrol
generalizations
fatal
##auber
centuries
catalys
downregulation
photoperiod
robinson
literatures
torpor
nai
diagnose
participates
everywhere
triang
substituting
denmark
attempting
linoleic
gws
hypothesize
oligomers
coexisting
miniature
chirped
recordings
pursuit
gearbox
##iscid
tokamaks
magnetohydrodynamics
altogether
eccentricity
1950s
leadership
hansen
citric
recoils
disagreement
herschel
watermark
prandtl
acupuncture
nascent
tuberculosis
poynting
1e
gbm
io
kap
mate
mcd
nq
nts
nuss
oocyte
pand
ports
uhe
##iom
##more
##onyl
##icles
##asome
ala
##adec
##ocial
spars
uninter
flor
inviscid
##obes
oversh
##rowing
committed
insignificant
proteases
characterise
brans
monetary
##aphyl
155
inductively
generalised
##isser
##aux
mixes
antid
stein
##istingu
goats
distinctly
chloro
seedlings
rooms
golden
##rock
documents
mpp
hinders
spacings
multifactor
academia
monoenergetic
metamaterial
discretized
contradiction
provinces
stirring
towers
lubricant
lubricants
neuromuscular
##wald
cirrh
overlooked
convincing
boosting
uncorrelated
entrainment
industrially
vietnam
bca
kc
lect
mce
mech
muss
nested
tall
##ket
##ui
##aev
##gro
##esia
andre
isov
##imed
##otti
reheating
##ocular
suble
##ysh
rectification
flocc
107
surrogate
##ypical
invented
##iao
smear
workpiece
lightc
##ocks
##scaling
elegans
settle
internally
contractions
238
coolant
##taur
dmft
seeded
smoothness
vaporization
tomographic
supplemental
mos2
stemming
lysosomes
welded
mucosa
presumed
music
swedish
uplink
chalcogenide
perforated
glucocorticoids
impinging
biphasic
resembling
naphthal
baroclinic
encryption
leisure
perceptual
enstrophy
1g
citation
eic
gj
gor
holl
noma
pj
s3
sending
uric
zeta
##oi
##mn
##mond
##fm
##welling
inoc
##isher
##tral
enanti
##ilateral
stably
anova
interrelated
relig
accord
granted
##illa
arithm
##obj
##anger
##annon
##annual
##osphory
concentrator
precoding
##electrons
##orescent
funded
pulsations
clostr
polydis
polyureth
argues
socalled
orientational
##kii
toxin
concludes
converged
##iii
sleeping
replicate
pelle
autophagic
arriving
permanently
spacer
##urfaces
subcritical
informative
profoundly
intercalated
incubated
felt
dinucleotide
dendrite
##planar
photosensitizer
polyphen
##iophene
electroluminescence
##nikov
seesaw
workshop
simulink
precondition
kahler
ruthenium
reminiscent
cahn
eigh
gcs
irel
mbl
nis
pus
pid
qe
wel
##ck
##aver
##nucle
##93
##p4
##aland
ingan
##itre
##ulant
proinflammatory
beau
stalk
anat
restaur
triaxial
eli
##ifted
flakes
etched
eman
1930
respects
sourced
requested
locating
discern
minus
##oneutr
motive
finer
finely
1600
endothermic
breit
accelerometer
swiss
england
resistances
radioactivity
003
##spectral
##oplan
seedling
schedules
predefined
diverging
bhs
courses
threatening
proceedings
microcavity
stat3
polycyclic
laminates
dlw
softer
disrupting
tangent
pharmaceuticals
aurora
czts
p2x
nondestr
saharan
secretory
antisymmetric
encompassing
puzzling
appreciated
hammer
irisin
substituents
kinesin
pesticides
developers
ireland
4−
420
a0
cgm
fv
ips
lcs
rbe
sri
tic
##otr
##uan
##lam
algin
##ante
##velihood
shunt
##ewable
livelihood
glauber
subf
nanob
supercooled
longterm
infancy
analyte
endpoint
autotrophic
reception
colonic
facade
##articles
protonated
axons
agreements
salv
questioned
mrnas
admitted
deploying
dentin
supercomp
silico
evolutions
watt
absolutely
piezo
superiority
##agging
rainbow
irrelevant
housed
oligonucle
updates
inefficiency
gmail
##electroly
libraries
disruptions
registration
autoimm
tribological
ewes
multiplicities
backscattered
collapsed
biofilms
breakthroughs
cornerstone
biocompatible
kalman
convolutional
corporate
photoreceptors
spectroscopies
superimposed
##itoneal
unidentified
quotient
cin
caching
james
kill
lj
rix
tat
wist
∼3
##ael
##rene
##fin
##hous
intract
##ucker
staphyl
##stalk
##utter
##ectal
trimer
trailing
comply
canadian
##ystis
plenty
sclerosis
unperturb
##diff
hevs
detuning
indistingu
invoking
nonres
##ported
biaxial
sme
##rolled
speculated
subband
minib
selects
networked
proto
147
minimise
biomim
snake
##azon
photoactive
hyperlipidemia
thinner
condenser
norway
laid
observationally
heritage
intervening
pi3k
oldest
therapeutics
psychos
attainable
##olipids
tilting
##acetyl
subsidy
xylose
subtypes
miniaturized
bromide
zooplankton
microtubules
preceded
husk
tariffs
liquefaction
chimney
meridional
##otherapeutic
multifactorial
arithmetic
bms
bins
cel
hong
kα
msh
ned
pfc
ratch
sativ
tad
vsc
±1
##oons
##vectors
##kg
##rc
##nut
##mass
##ϭ0
##enoic
##oro
bee
antiv
deactivation
ack
orc
adher
##atio
powertrain
##iva
speculate
124
##overn
158
finish
sloan
novelty
##bridge
hybridized
copyr
mcp
chromatic
magnetite
occupying
denaturation
##boo
zealand
asymptotics
balls
pectin
##loaded
margins
suspected
epidermal
unusually
physico
kilometers
mucus
rheum
plotted
episode
##quette
sgrs
leverage
##tidal
workloads
credit
sanitation
nodules
decorated
corticosterone
alarming
endosym
christ
invertebrates
sobolev
placental
crosslinking
2b
3a
c4
jak
mere
nos
rer
sale
tpa
vasculature
δg
##jan
thro
ink
##ilocal
bears
rearing
acs
weiss
phill
modif
##ifera
incid
metas
sealing
peri
apple
twh
amput
##ynaptic
chart
conclusive
##berry
newer
##ameth
blr
blur
##ylls
finland
##titution
needle
iras
cosmetics
topical
official
graphics
binders
304
humanity
##pecies
issued
skull
weakened
pubmed
heterotic
cardiometabolic
malt
extremes
sunflower
cpv
regularized
surveyed
mhc
csa
dilat
unstructured
saudi
##protein
vastly
vulgar
1959
hostile
##ogluc
dichlor
carboxylase
groove
john
customized
attractor
umb
biopolymers
##pressing
yuan
volcano
spiritual
succession
maritime
deregulation
dressing
departure
exfoliation
pressurized
hypothermia
diffeomorph
wistar
unperturbed
vulgaris
2nd
dab
dct
fumar
gsi
garc
hud
jp
l2
lms
nect
pts
rope
s6
tcp
waf
##ofs
##vector
##rus
##rack
##n2
##mma
##ptic
##itating
##elberg
tod
enum
##empir
##odulation
##ithi
onedimensional
alas
alpine
wholes
##ocene
tris
weber
##ersen
##avities
flamm
clump
oph
carp
##adiene
underweight
underpin
##rowth
curc
##tilis
multidisciplinary
##onstrained
synoptic
145
correlators
hump
177
preclin
swnts
polarizable
antiparallel
##ohist
bioinform
dopamine
macroc
chemo
chemot
irrig
packages
myocytes
logging
mcm
uncoupled
photoconduc
resonantly
##ruption
colorectal
manipulations
kramers
exhausted
crosstalk
##yllium
mounting
hooft
polyprop
bnl
favoured
hydroxybutyrate
foreseen
foresee
equilibrated
utmost
fingerprint
ascorb
milliseconds
tagging
consolidation
gammar
abandoned
cementi
bamboo
glycoprotein
phthalocyan
asthma
elastin
dismutase
cirrhosis
##overnmental
preclinical
hx
hull
kat
naf
nrs
tir
tcs
wats
yar
##aemic
##92
##mev
##1r
##front
##produc
##83
##wind
##onin
##estive
##escale
##oradi
##ucting
rex
##irgs
trimes
##ogging
parc
##aventricular
sold
gravi
##plet
underlies
biogenic
microns
butyl
noting
dementia
superpotential
repression
##bred
##ieu
drill
drude
correlating
correlator
swir
##orespir
reflex
parameterizations
purine
theorists
residing
statistic
guides
fractured
exposing
retains
polyatomic
doublets
##ystems
motivating
ppp
immunohist
herbal
feedbacks
legi
evaporated
methylene
attenuate
tomato
ellipso
accommodation
unexpectedly
elsevier
##hedral
tunnels
agglomer
elicited
hotspots
dwellings
partitioned
denitrification
prosumers
descriptors
##recipitation
disinfection
outlook
rixs
wafers
##orespiratory
0ν
avenues
bac
eit
ere
egs
gum
hits
lsc
moll
pacing
vp
zel
##cap
##night
##mw
##map
##lp
##onon
##eseed
##enal
##aro
##acil
##uri
isra
##imidine
ase
chol
choc
tries
pareto
metagen
perceptions
flrw
##uez
powerl
overheating
thermophilic
subtilis
physicians
news
calcination
supervised
fuj
secular
moo
organize
microfl
conducive
slm
cosmologies
standby
substructure
fulfil
editor
##tracting
##elsen
steph
rapeseed
cmr
refurb
cerv
##she
lineage
configured
lawrence
fasted
meshes
crystallites
archet
psp
clinic
publicly
warmer
ecologically
##transl
replicates
octet
joined
columnar
authority
historic
constructive
emphasizing
execute
parenteral
keto
diminish
poleward
nrc
suddenly
tdd
cleaved
emptying
obscure
electrospinning
ownership
prognostic
radionuclide
eccentric
puzzles
withdrawal
seizures
congru
fsrqs
lightcur
##empirical
1h
dst
fcr
gins
hoff
laz
mist
stern
tet
xm
##egen
##oone
##momentum
##dt
##bury
##wes
##2a
##alid
##omycin
##uran
congen
##ospor
beans
antit
##erez
##outi
pren
diap
shop
strugg
highway
adduc
##allis
coaxial
##echt
meant
##formal
client
##onder
##istors
decon
##ismic
##athers
##echanics
demol
discomfort
blasting
ours
##entric
finished
##tituted
carbonization
pulling
subsets
polarons
english
skip
plantations
guo
thinning
planetes
260
policym
accessory
298
recognizing
predictability
acceptability
reconstructions
discovering
accompany
legacy
visualized
sterilization
ribose
histidine
longitudinally
octupole
fresnel
noncovalent
distinguishable
1958
logarithms
lungs
contracting
anticipate
vlc
eulerian
multiplier
accidental
crown
denser
refrigerant
##arbonate
##pressure
ponds
reagent
pearson
pillars
successively
barium
snapsh
recirculation
implosion
neuroprotective
##onymous
unreliable
ukraine
geant4
compactifications
nondestructive
intractable
legitim
5−
kaw
lis
lema
nong
p1
pale
tensions
vaw
##cell
##gia
thing
##enna
##anz
##anas
##roton
##eled
forages
##agulation
deem
diaph
shib
##charge
##actors
scc
unin
##ostasis
clo
increments
invention
photolysis
micelles
esr
glazing
soot
newman
mae
discarded
characterizations
116
excreted
multipar
##keys
draft
confusion
geos
generalizing
integrative
transmits
selfc
skill
announced
sih
millenn
polyelectroly
horn
substanti
##inositol
pparg
walks
turner
solvated
##otid
##otides
mortar
mwcnts
adhesives
##uloses
multicellular
yeasts
grassland
cyanobacterial
granularity
##electromechanical
athlete
shrinking
sequentially
tachycardia
sige
hairpin
manufacturer
intergovernmental
tradeoffs
antagonists
antiprotons
pillar
subgroups
##etermined
##oacetate
abbreviations
dodec
rugged
preex
uninterrup
polypropylene
2max
cfs
dyn
hove
ith
lund
massi
roch
rns
rows
t4
vox
zag
−9
##uity
##03
##pop
##hc
##˚c
##esign
##alfa
##osyl
##odium
stance
stew
reacts
reanalysis
##agin
##agog
truth
trillion
compost
neo
neat
apo
apical
adam
hash
peripl
relie
##achment
regain
notor
amend
formid
glial
noises
insert
##ovir
##eva
superall
brick
##ylon
obtainable
optimise
inductors
occasions
demonstrations
autoreg
linearization
interfaced
##lerotic
vibronic
propagators
macros
meszar
homod
saturable
nanosized
booster
ppb
mnps
everything
icos
deployments
substitutes
sixth
peptid
egypt
dissociate
hops
unsustain
islanded
dsa
dssc
tablets
travels
uhv
actinide
recharging
spanish
apertures
cohen
alfalfa
cygn
textured
precipitated
passiv
biomarker
bouncing
boreal
diphosphate
keratin
glucocorticoid
consciousness
galactose
hematopo
succeeded
disconnected
##tibilities
##ozygous
monodisper
photodiodes
relativistically
infinitesimal
menstr
nusselt
alginate
phillips
meszaros
baker
dutch
hatching
kit
lx
qpc
r2
roc
rans
sbm
tant
trou
ug
vcs
xi
##07
##3p
##low
##hor
##hel
##bc
##birds
##86
##enone
##atases
##elia
##urt
##ulsions
##ucci
stur
##adip
##threshold
attr
##ocusing
weib
parp
paraff
canola
##rian
##inder
twins
formic
smc
subl
mold
##eptive
transiently
renewal
propelled
stepping
hald
mesenchymal
virulence
richer
tori
conformally
footing
concerted
mapk
ligase
participant
quantifies
assembling
possessed
vegetative
sixteen
quadru
wheeler
impairs
diagnosing
##oxidation
taut
ndf
medication
americans
buildup
sedimentary
##oprocess
replicated
holm
pitaev
interferences
corners
lsst
beryllium
benchmarking
businesses
acetylation
contaminant
pinned
statements
efimov
microalgal
ripening
tibet
prosper
sandwiched
eutroph
spermat
settlement
rooft
##opoulos
weighed
splicing
phevs
unequal
##azolium
masonry
aureus
##iomelan
isovector
##western
cil
dent
fn
gq
ling
nil
nern
nife
ry
seld
wann
##uffs
##atts
##itan
conting
##ido
##ims
atypical
##opyr
##apt
shade
shannon
##oglyc
mea
hept
accreted
##ght
109
##positions
amazon
##ician
assure
cori
corp
buty
concave
demagneti
117
improper
additions
##tricted
synapses
spinless
excitatory
##extr
iridium
lifting
##atalysts
erk
largescale
globalization
edf
feeders
oxygenation
225
235
quasist
photoan
axially
digested
ca2
menopause
uncom
screens
mori
streamwise
lamellar
plasmonics
pyroelectric
insufficiency
hindr
deuterons
thermoacoustic
pyy
##opsy
revolutionary
personality
dwelling
noncommutativity
bimodal
seaweed
phenylalanine
purchased
neurodegeneration
micrometers
electrochemically
nanodev
onsager
inaccur
dilepton
fortunately
dorsal
periplas
formidable
boy
hk
haus
iu
pink
tid
ua
##rooms
androgen
##isable
##omyc
##iga
##odextr
beating
sten
##uma
##abetic
##uda
disposed
shah
##gev
usd
##ermost
interphase
adg
##aku
placent
perv
perin
genomics
generality
##agnet
nonex
cru
proteolytic
lime
hydrologic
bladder
reporter
brad
brains
finance
complexities
suggestive
slows
silencing
##architect
copep
polyakov
failing
immisc
histogram
pcos
plasmid
ppy
platelets
migrating
alkanes
homogeneously
comptonization
hydrides
rodrig
ccr
nadp
positronium
cumbers
##tinuum
dbd
justification
sulphate
descriptive
##esterification
svm
innermost
partnership
concomitantly
electrochromic
biosensor
erythrocyte
neurotransmitters
disaggreg
neuromorphic
overestimated
spurred
bjork
faculty
coarsening
estuarine
sundrum
oxidoreductase
isobaric
unsuitable
autoimmune
indistinguishable
watson
##iomelanocortin
nernst
seldom
a3
hams
pun
qa
wifi
##4a
##r1
##mers
##pins
##hg
##71
##ald
ofthe
##icidal
##icolor
##inges
reionization
reissner
##ston
##iberg
scott
indentation
bioremediation
##asty
smes
agouti
veritas
suppose
command
multin
##relations
multiparticle
##ochlor
thermalized
organisation
172
##auterine
polariz
separable
snn
schematically
centred
sket
protonation
broaden
hypothyroidism
2013a
##ratically
accessing
vitality
neutralization
temporarily
dominantly
draws
woods
tolerate
480
ribbon
title
exchanging
rolled
tcm
lspr
degenerative
oligomeric
fruitful
pnicti
absorptive
peculiarities
fischer
thiamine
enthalp
intuition
tibial
fermentative
fetus
triacylglycerols
campaigns
acoustical
##plasia
prokaryotes
allocate
photomultiplier
conceiv
opaque
##houses
cumbersome
3t
buch
bout
cite
fj
mig
somm
tong
##3d
##fo
##bia
##±1
##erved
##eda
##atured
##oman
##uls
bea
reed
resection
rescal
chond
shi
interruption
adams
seals
plating
unloading
clothing
simulates
potts
cured
brass
founded
advoc
greedy
approximating
shorten
visit
propane
multiplets
oxygenated
photoelectrons
sequenced
breaker
constitution
##atsu
horse
torr
myo
melts
ethn
simplifies
electrolytic
mrk
immunos
mitochondrion
acquires
converging
perfused
osteo
hopf
devise
ignore
batse
##fields
gpus
1957
shipping
detritus
##ahedron
##acrine
##acryl
melanin
pwn
watershed
ranked
rankine
pentose
friedman
sawto
multilayered
underestimate
licensed
porphyrins
fibroblast
noct
chalcogenides
feelings
epilepsy
dollars
undersc
stagnation
submicron
puberty
planners
insecurity
polyurethane
anatomy
lemaitre
010
4e
aod
arose
cash
cpa
ews
hod
ich
lau
lars
nsc
oecd
psc
tie
##gut
##500
##xbs
##78
##ºc
##asa
##elman
##tran
##actin
##osilic
resh
chur
##plate
##ococ
diary
parall
##riven
sei
plc
meyer
##ende
flick
##ipp
cloned
twee
indefin
thereof
aba
arisen
frenk
glands
thermop
colloid
##enez
commuting
blues
excimer
somehow
##trictive
combust
realtime
##ogeny
swipt
ers
rotors
multiplet
validating
runners
crystallized
simplifying
seafloor
elevations
triad
##being
deviates
constitutively
sixty
semiempirical
quadratically
evaporator
overlaps
liner
azo
##frag
mp2
regener
ferrous
##olipid
tremendously
athletic
dnns
diminishes
ripples
contractility
please
methanogenesis
ucp3
banana
bimetallic
rheology
pemfcs
##oprotection
fleet
sporadic
monochromator
squarks
flavonoids
##opolys
authentication
tectonic
microcontroller
##objective
nonresonant
bluesh
4s
gos
ix
iro
kong
tss
vog
wired
yau
##can
##aenoic
##mol
##bound
##orbed
##itated
enrolled
##ucks
antin
alam
spong
trivalent
##udinal
diarr
intertw
quinone
##riptions
caries
invalu
arable
exports
maybe
##ociated
blunt
currency
workplace
brighter
dimeric
associative
complexation
sensation
##fulness
beaming
backup
endocr
2100
##otropin
algorithmic
expose
pvs
miles
salic
##neider
relaxations
##igenesis
cdc
tendons
violates
rho
rheed
dissociated
cfrp
unsatis
bilinear
ruo
titr
intersections
venous
assignments
penum
bitumen
pyroly
scintillating
unused
membered
kilo
lieb
shrub
fifteen
capsid
guaranteeing
pioneer
dangling
ocular
cocon
kuz
tackled
wounds
discipline
asymmetrical
erythrocytes
aberrations
##fluoro
bombarding
returning
restrained
restraint
scaffolds
chemistries
catastroph
acoustics
antiferromagnet
dispersing
obligate
##easible
disparate
titanate
corroborated
incurred
reorientation
grasp
misalignment
transversal
synthetase
israel
haldane
eutrophication
invaluable
aβ
bous
bah
hsc
jumping
pound
wick
zz
##09
##bw
##inus
##edral
##isk
##trons
##owicz
##idic
reentr
ances
anton
##tines
##uto
spm
shs
sher
##choline
##ously
##aches
emi
alleles
asser
##unct
electroneg
##iveness
polish
wellbeing
insolation
capill
secrete
##brain
##epar
multihop
carbides
buy
excites
microelectronic
##hibition
slots
files
semantic
vii
crosss
maximise
evolutionarily
testbed
lipoproteins
estuary
manager
plantar
vehicular
clearing
cardiover
diabatic
universes
choi
stabilizes
illustrative
osteoblasts
cooperate
complementarity
abundantly
devast
morse
morris
circumfer
pufas
medications
npp
odor
repeating
iteratively
lysosomal
532
1−3
##amiok
ttf
emotions
illuminate
##rogens
hifu
quartile
multipliers
carotene
imprint
davies
settled
abrasion
predisposition
gpcrs
##arrier
prokaryotic
ultralow
undetected
spawning
##artite
neutroph
garcia
nectar
wholesale
trimester
deemed
massively
pitaevskii
dorm
drough
fets
hpl
igr
jer
kp
nish
sach
πn
##04
##ml
##mp
thyro
##entin
inland
##arms
##reen
##aser
##urus
isr
##idation
anem
##pering
##quas
spending
elbow
##che
advice
seiberg
##arium
ops
grades
##illin
##posing
carib
abo
bia
corals
##obically
positional
overs
speckle
subgrid
feet
verifying
superpar
workflow
##annels
researcher
generalizes
lifec
sizeable
backre
harbor
erent
shortwave
origami
catalase
profess
themes
##ammox
resistor
adipokine
cools
bacteroid
randomised
##neg
clinicians
004
ethnic
classifying
spline
chromospheric
oliv
pseudospin
flavin
##ecker
guideline
reserved
readings
diverge
looked
missed
microscopes
pyrochl
fungus
encourages
updating
ppars
foreground
redistribute
janus
geographically
levy
nondegen
leveraging
bottlenecks
mountains
borehole
prohibitive
flagell
featured
unmod
##inskii
cytoskeletal
retrieve
seabed
bloom
reconsider
grafted
corneal
reconcile
thoracic
abolished
abatement
unsustainable
polarizabilities
eed
f1
fell
gv
h1
j2
mwh
nul
nights
rk
sx
sou
tz
watch
##util
##ract
##m1
##din
##pn
##had
##2o3
##alog
##any
##arct
##rey
##elting
toe
##trap
##acid
encephal
protr
##imoto
resorption
dea
##ectual
chpt
chev
ate
spt
phased
diving
disf
##ogle
elms
impar
##akh
plag
scn
heav
graft
##posax
ample
expertise
overdoped
valor
radiological
##tilled
calcification
##overs
##ximal
##meas
##001
##oxicity
concentric
oxidants
airy
cmc
reviewing
stepped
infra
entail
teams
magnetor
polyan
cardiorespiratory
laterally
naoh
fragmented
beliefs
whey
sdh
##block
landauer
instrumented
tcr
multicast
inspiration
cyclone
inserting
bsa
autonomously
##personal
reefs
strikingly
carcinogenesis
fundamentals
retarded
exertion
dictates
exported
necessitate
gonz
atherosclerotic
bagasse
mxenes
revisited
obstructive
estradiol
corrugated
##onsumption
tsunami
perceive
bepposax
biomimetic
gammaray
tantal
paraffin
wannier
immiscible
sawtooth
3σ
7−
arom
b12
cid
celes
dme
fov
hinge
icd
jt
k2
kor
lane
ride
sows
sfe
tile
tiles
wg
δe
##kel
##g2
##sn
##foil
##yel
##haven
##b2
##81
##ecking
##asi
tocop
##trating
##trized
##uric
isomeric
##igan
energymomentum
reus
anoxia
##tina
reset
resort
##adical
##agers
##andes
interdependent
coactiv
seq
pln
##diabetic
appe
redd
radiographic
##yme
molding
completeness
popl
fluences
multiples
designer
neutrinol
##roducts
143
microd
allowance
treats
accelerations
centroid
##onald
climbing
oscs
mobilities
burs
virgo
luminal
metallurgical
slowed
mcl
robustly
complicate
commercialized
raj
catar
##fluorescence
hemodynamic
vibrationally
illustrating
wright
portland
ignoring
intersub
cube
iterations
magma
berk
cyclodextr
happened
microbiological
ubiquitously
offsets
sensitization
sputtered
holography
penta
pedestr
intramuscular
filamentation
flashes
vasod
oleic
biopolymer
dinit
enlarg
m2m
neighbourhood
weaknesses
electromagnetism
phycobil
stromal
chaperone
saturates
telluride
##ypsum
couette
wiggler
transceiver
glueball
inhabitants
maneuver
demolition
sommer
osteoarth
nocturnal
tocopher
neutrinoless
bold
cient
css
gout
kob
moc
nice
rup
sick
tgf
vfa
wds
##ray
##tles
##94
##mus
##mings
##ller
##yon
##hz
##hell
##alone
##orr
##anedi
##icum
##ometallic
##imetre
exoplan
ores
##ocystis
diquark
##aped
parking
paracrine
interannual
coined
plumes
##ensin
simulators
asset
invalid
techno
photores
glcn
wellknown
speculation
notions
subbands
radiatively
supra
requis
experimentation
fuelled
examinations
hydrochlor
concentrators
ending
breeds
##pray
primates
##ohedral
progressed
google
annot
guine
burns
radically
porcine
ethiop
niobium
simplifications
passengers
toxins
rotationally
concluding
##ocalcin
nanomaterial
osteocalcin
isotop
legend
masking
ischaemia
spreads
hydroxides
seismicity
medicines
triplets
battle
surprise
oligosaccharides
hindering
imbalances
expresses
arabia
nerves
triboelectric
hepatocellular
czt
macrophage
hydrolytic
refrigerator
##etooth
oncogenic
glaciers
##00000000
chronically
ysz
photoreceptor
gaba
spiking
confounding
thruster
mossbauer
arrestin
nonrenewable
psychosocial
coriolis
6−
950
csc
d0
dome
eph
hat
lod
lone
nem
ocp
rpe
saves
vn
##sil
##peter
##wered
thaw
##onite
##enin
##orters
##usts
anammox
##americ
##pert
comoving
##thiophene
chris
dish
scour
perimeter
unifying
desulf
empower
opf
methacrylate
reduct
biol
##rosymmetric
##gren
##obiotic
glaz
polishing
subthreshold
physis
agencies
##tiful
121
reman
confers
estimators
swnt
erbium
biomedicine
centric
lineages
depot
milled
bacteri
sums
caution
coping
malate
archival
mediation
socially
gao
attribution
rfa
admix
csr
orthoses
sterol
repeats
governmental
mosfet
micrograph
##agged
holder
elucidation
##enza
gcr
enormously
caches
chirp
chapman
ancest
provisioning
carcinogenic
picoseconds
traversable
unpaired
answered
legisl
smartphone
grafting
gangl
bluetooth
hemorrhage
bonnet
bardeen
smbhs
brookhaven
hindrance
placenta
coconut
droughts
nondegenerate
3h
bv
eif
fod
fft
gust
mack
oak
p38
rams
wool
zen
κb
##making
##dles
##82
##ϯ0
##enzymes
##ineralization
##elic
##ationally
contig
proofs
##idential
##ilicity
energye
chan
##plasty
##aints
sparing
trape
##opus
print
stron
parties
parks
2040
wastage
unans
flies
clam
emp
twisting
signifi
##ews
arach
calabi
##engine
commutation
excur
##ouples
##iano
advocated
peel
slac
slov
beamlines
evening
focussed
##incial
offices
engaging
purple
barely
hands
practic
depolymer
deproton
oscillate
attend
homa
mmc
magnetoelectric
aerodynamics
packaged
bmp
quasiperiodic
tubulin
reconstructing
cnn
careg
csf
hapl
zebr
pups
enteral
cck
fmri
adiab
resistin
regenerated
microorganism
threaten
dehydrogenation
payback
taxes
warped
##hydride
arabin
manganites
neonates
filamentous
##arboxylate
multiplied
diversified
abrasive
subspaces
illnesses
destabilization
##oxygenase
austenitic
amphiph
ablated
zeros
multiplicative
##worthiness
substorms
recreational
bistable
mushroom
p3ht
nonstationary
geostrophic
southeast
aesthetic
frailty
assemblages
academy
sativa
chemotaxis
cementitious
unsatisfactory
lifecycle
celestial
unanswered
bem
cpc
dough
eig
gle
gypsum
kiss
lec
lax
mns
oe
rick
sow
tfs
voc
vld
xas
μs
∆g
##cz
##uated
##su
##sation
##pace
##onically
##icide
##uria
proactive
##odicity
##umid
tryp
phag
##izz
##apatite
##aprote
distilled
nepal
interd
leu
coplanar
perpet
univ
##ensing
sims
allotrop
structuring
underpinning
biasing
biref
##angi
technicolor
overfeeding
exped
preload
##tensive
##anna
neutrals
##ycles
144
microclim
microquas
slave
transferase
eleph
activators
accelerometers
##prec
standardization
worn
belts
##afish
dama
30°c
colours
creatin
rotated
liposomes
computes
quasiclassical
disperse
photoble
planted
plantation
axps
synthesised
homot
chemotherapeutic
ghr
mutated
malnourished
archit
nanoelectronics
telomer
sram
specifying
pictures
nanocrystal
catabol
preferably
oppositely
cascaded
##kenstein
##books
augmentation
mda
respondents
doubles
cancell
##ovsky
cyclohex
baths
deuterated
rationalized
femtoseconds
ostr
osse
kilow
multifract
politics
##folded
lux
campbell
pioneered
methanogens
obeying
fdg
p2y
esterified
servings
posteriori
trimers
corrosive
nanoseconds
acrylic
michael
jacobi
salmonella
jackson
sipm
reciprocating
metropolis
unacceptable
naphthalene
beautiful
tddft
menstrual
superparam
zebrafish
birefring
3n
bure
ced
cesium
dk
eug
fight
hend
hrs
ibm
jay
mz
mount
nze
pis
pds
tme
uter
ucn
vms
wants
xl
##east
##iol
##kk
##uters
##uki
##rm
##nh
##tel
##dp
##zations
##eri
##as2
##trip
##omon
##etta
isoscalar
##owitz
##user
##imeric
##imentary
exerg
##abular
comet
chances
checking
sple
##opard
dib
##apore
disreg
conspic
intensely
coin
##riend
transesterification
1900
assurance
formulating
contacting
contention
redesign
##ewicz
##reek
beck
specular
##ptonic
fea
collects
blowing
##rella
singapore
##ivering
electrodynamic
organics
scholar
sla
lifep
##deev
##ophene
lessons
##redoxin
necrotic
betatron
oxygenic
greener
intrab
tetrac
digit
shocked
006
##ametric
conformer
dcm
##forth
nik
##opez
330
spheroidal
340
pani
hemodialysis
plateaus
acetylene
tumorigenesis
migraine
smoothed
cooperatively
pyrimidine
cascading
communicating
proliferative
liberated
ubiquity
infertility
northwest
intersecting
reversing
join
merged
cyanide
shielded
extrapolate
riparian
quintom
nighttime
municipalities
ckm
rmsd
##acylglycerol
bleeding
paddy
harnessed
cropl
pickup
aberrant
touching
warranted
intercellular
weighing
stick
cochlear
cigs
nontoxic
suzaku
beacon
rovibr
reverberation
rheumat
throat
chocolate
diaphrag
backreaction
strontium
1σ
auc
bouts
eik
gou
mile
mfs
nesting
pma
utr
##ais
##nets
##type
##je
##dens
##fined
##ll
##lay
##lite
##bling
##wo
##76
thalian
##alt
##aline
##arate
##elo
##leading
islet
enigm
##ucial
##oderm
asm
exos
stover
##sies
comets
trucks
cof
mep
opv
##independent
smf
charmed
crane
##ropin
oxyt
cape
metabolize
##ccs
longwave
##ultural
confront
wavepack
microv
geochemical
pean
storages
##afrost
convention
glucan
##ammer
snf
goat
oscillates
nonlinearly
##retes
saturn
pastures
permafrost
polyester
gaug
malaria
horava
pco
cd4
##oplanetary
horizont
unconstrained
cpp
syntheses
bennett
peterson
sharma
surviving
##ushima
390
supercell
supercurrent
favorably
chamele
sandy
mosfets
ssa
pacem
lagrangians
##kyo
ergodicity
exploratory
multicore
tsallis
interconnections
ultrafine
##icoo
undertake
penetrates
audit
overheads
##holder
remodelling
feces
garner
fiducial
rhodopsin
lymphocytes
prescriptions
heliosphere
catchment
orbifold
rossby
intimate
glioma
digesta
##ouless
protostars
tolman
subclass
inexhaus
metropol
endocann
excavation
aunps
adhere
clostridium
antiviral
microflora
cygnus
rodriguez
bjorken
##amiokande
hplc
requisite
thaliana
4c
bubb
cfl
dovich
drell
eur
ets
gx
iec
lopez
nbs
pant
rah
teng
went
xyle
##ience
##rab
##pectr
thouless
##onics
##inent
##olia
##omin
##etus
##lyca
##iman
stt
##abric
restructuring
##ectable
acutely
spores
dihydroxy
neoc
interrog
##ostatin
gennes
##encl
clients
##ghai
193
twenti
processability
abroad
##acking
bioprocess
##gry
##anging
overlying
overflow
photore
franck
gln
directing
directives
default
cosine
134
behaved
157
gasb
love
infused
analytics
cosmos
fueling
counters
anywhere
worlds
testable
303
snakes
##shell
##alez
fluctuate
##heim
labelling
directionality
contrasted
chemists
pvd
magnetot
permissions
salpeter
boots
candles
malfunction
enhancer
pdb
olfactory
ambipolar
adaptable
cnns
diffuser
diffusing
dysfunctions
texas
##class
wrapped
sufficiency
steroids
enteric
##ullary
shoreline
regenerate
psychology
symptomatic
catalytically
haze
ejector
gluino
haloes
ketones
frost
capsules
rbc
##particles
methanogenic
discriminating
percenti
fecund
shutdown
catalogs
czech
jeff
unrestricted
purchasing
##ranial
rhodamine
kirch
extrapolations
enforce
wavenumbers
squeezed
sonication
shanghai
oxalate
desiccant
piran
inconven
aroused
bioinformatics
cervical
tweezers
creatinine
enigmatic
xylem
twentieth
2x
3b
5a
dech
j18
jitter
kenn
lav
nuc
nore
nelson
rts
rcs
tyr
tco
tls
tearing
vat
wan
ym
yosh
zener
ϳ1
##a2
##ras
##m2
##jiang
##lt
##xx
inactiv
##orp
##omere
enth
##osus
##cein
repos
alert
##stan
##utt
##ayama
compiled
distress
paraventricular
intertidal
flora
evacu
hepar
##achi
##achlor
emt
##arding
nonmin
bioph
##tened
crist
thermomechanical
agile
superfluids
bru
##ylated
mooring
151
observes
lovel
ionize
wavefront
microanalysis
integrator
endome
continent
utilising
edwards
turbo
##okinetic
rotates
##ammonium
certif
snf1
ferredoxin
100g
nmol
##azone
##heath
photoion
macroscop
shockley
permutation
breakout
owner
gauges
aeron
martine
fauna
2015a
##aporation
##space
rfi
sulfides
remarks
baryogenesis
##arcin
quadrature
portugal
southwest
gaussianity
penning
aquifer
phytochemical
attaining
grasslands
microcavities
laminate
evidently
sputter
##oglut
chlorophylls
endothelium
##aughlin
nominally
compartmental
crustace
cassette
xenobiotic
forbes
dvfs
fingerprints
surgeons
rescattering
ectopic
##olithography
sacrificing
ameliorate
unveil
##rieffer
dehumid
territorial
xfel
electrophysiological
plankton
polyphenols
restaurants
policymakers
rooftop
nanodevices
thermopower
devastating
professor
trapez
horizontally
cake
cock
fain
g6
jul
kron
laf
mø
nim
nylon
pfa
tec
tear
yin
your
∆t
##ietic
##gun
##hill
##−l
##2p
##oner
##onversion
##inn
##aler
##atrix
##anin
##roch
toa
tops
tokyo
##osov
##osides
bead
##amura
##iri
ch4
modis
advers
metab
leon
cofs
peric
reluct
##ghes
opc
generative
underm
##therapy
temp
ars
photobi
hygi
provincial
glow
potency
mechanochemical
superpositions
investing
remedy
microarchitect
infrequ
affective
1800
galvan
grounded
futures
phosphorous
rooted
intrauterine
epil
fluidity
assesses
adaptively
plankt
##ompens
polyd
millet
hotter
boom
nanopl
relaxes
pcf
agronomic
modernization
menopausal
tendencies
motivational
narayan
lactobacillus
shapiro
unfavour
##beam
artifact
revision
mlt
tapered
virtualization
hexa
ribosomes
recovers
northeast
ssdna
weathering
impede
overlapped
duod
cheese
striatum
distinguishes
##pea
boards
sensitizer
fulfilling
listening
##acylation
##aceted
lyα
hydroxyapatite
microporous
grooves
antiferromagnets
anharmonicity
helicase
zeroth
unreal
anorexigenic
dilemma
nordstrom
procure
liquefied
leukemia
squeezing
bistability
##stadter
scrutiny
tedious
poisoning
timedependent
fumarate
irrigated
stewart
perinatal
enthalpies
gonzalez
poplar
##anediol
photobleaching
spleen
martinez
050
2×
bib
cess
cres
dow
edi
ging
jur
kpa
lus
mpt
nems
piles
qg
sj
sss
voy
vinc
wz
wakes
y1
μg
##via
##kit
##uber
##gic
##d2
##fins
##hoff
##bn
##68
##eni
##orub
isw
##imethyl
##teric
##umber
##aments
##ocar
wei
##duction
disintegration
unify
flotation
ope
1948
##phot
##phenyl
notwith
##agnetism
##iciency
nonf
nonp
underd
hyg
glast
crick
upreg
smallness
carbox
monog
sls
163
lossless
185
utilise
accuracies
objectively
circulatory
damp
gapdh
308
colder
propri
cerenkov
superconformal
digiti
caes
contextual
microbubbles
replaces
##gett
##aminergic
293
invariably
##otherms
pmts
heightened
curvatures
communicable
mwcnt
zeus
actuated
cognate
attaching
palatable
intellectual
penins
replicas
aquifers
messengers
prevail
6000
float
adsorbates
latitudinal
multifaceted
boxes
sensitizers
nebular
tpp
ovx
##oaut
phylum
noticeably
intuitively
publisher
launching
ccsd
photodetector
hydrolyzed
scratch
electrospray
##oxygenation
septic
gilbert
harrison
hallmarks
protostellar
overconsumption
chaperones
fwm
seizure
darwin
hectares
hofstadter
curtailment
unicellular
positivity
synechocystis
nafion
gravitino
voxel
monodisperse
conceivable
pyrochlore
contiguous
vldl
inexhaustible
metropolitan
notwithstanding
1m
4g
4p
511
bass
cvs
dit
dong
fade
git
kra
rbs
roth
tsh
zak
zip
νν
##kw
##uy
##test
##1s
##jun
##lot
##leness
##89
thri
##onom
##inarily
##atos
##ulable
isoch
##igo
##ilin
reused
anatomic
compe
impeller
intends
plast
genesis
##associated
abuse
decarboxyl
fred
glacial
crh
crater
##ileptonic
thermoph
radiator
radiographs
proteasome
111111
freest
monos
1400
senses
pea
lifted
fuelwood
beamed
lossy
ulirgs
##ogener
endocytosis
evenly
scatterers
acidity
airway
ects
broth
suck
steer
##ohe
hypoc
mitch
balmer
bulb
##heat
##aea
nitrous
##yrin
gupta
homoc
007
blockage
##eptid
nielsen
ptc
mcg
quasielastic
complicates
prolate
chlorella
routers
rao
formalisms
differentiating
ciency
streamer
ansys
debates
interferometers
wester
submm
trigonal
##otonics
1956
orthogon
ibis
tlr
revolutionized
multimodal
alleviated
crustal
inconsistencies
decelerated
xylan
spirals
hypersonic
cardiomyocyte
cohesion
threading
baby
nonconvex
avian
recursive
magnetostrictive
thrusters
disentangle
##eromotive
pythia
philosophy
regimen
hyperinsulinemia
griffith
antidep
selfconsist
millennium
osteoarthritis
ethiopia
conspicuous
##abricated
fainter
020
1r
c6
cef
ding
fda
hires
j16
kop
larm
nah
npc
qpos
rum
rss
rye
ssp
tess
tian
tape
vents
wse
##o1
##oin
##ubs
##a4
##tling
##mans
##120
##binding
##x1
##esters
##itochond
##enteric
##omagnetic
##ulting
##osed
asca
bekenstein
styles
revi
reared
algaas
##ird
##storm
##adj
##uder
diox
shak
##geal
stray
##orta
metaz
scfas
graham
##phthal
##resh
##ewski
biopsy
livers
datacent
fru
crabs
ags
molasses
sams
##ubes
freund
carboxy
microgl
starter
composting
165
cosmetic
casein
phenix
semileptonic
edlc
##electrical
feedforward
ecr
ecd
metabolisms
naturalness
vela
reflectors
hyperspectral
2010a
heterologous
saturate
2011a
displace
gauged
milestone
stringy
niacin
hosted
dayside
pbi
sheared
deno
expectancy
380
leptogenesis
deforming
mimics
readers
ubiquinone
adenylate
culmin
khan
kaonic
seasonally
bpy
##persity
sheds
pursuing
morbid
qmc
illuminating
rejected
hilliard
gonad
recalls
abruptly
diphenyl
mxene
jacob
berger
senior
helicases
cystic
abdo
phosphatidylinositol
brachy
##glucose
thermoregulation
arnold
staphylococcus
phthalocyanine
powerlaw
notoriously
copepods
frenkel
guinea
adiabatically
eigens
##riendly
oxytocin
##classical
fecundity
macroscopically
planktonic
unfavourable
antidepress
aic
bse
cyst
dbs
dyne
dzy
gk
g2
kov
kau
lls
msc
mds
plex
rations
tech
vbm
ware
zb
×10
γp
##05
##my
##1b
##lining
##yal
##inio
##infr
inch
##acci
stev
resisting
##agh
dee
orion
209
consult
adder
##encephal
impart
recap
recla
genotyp
solvers
##othy
nonvol
bi2
##reeze
prebiotic
esp
glomer
pauc
calf
upr
upgrades
upwelling
##eves
outages
outlines
oxo
nucleob
secrec
153
##ports
infarct
ended
##predic
anger
##ophobic
internuclear
biomaterial
ceria
silent
supercontinuum
fluctuates
wastewaters
annum
adapts
bacterioph
gamow
mmwave
pvt
2012a
condon
2014a
malicious
faith
znte
31g
nitrogenase
flattening
pdh
2016a
rfbs
spheroid
eigenvectors
petrol
hughes
career
tripl
ampute
wilkinson
correctness
neighbours
##enedi
mammal
legged
bhj
misfolded
fluoro
anomalously
ssd
switchable
xrf
mpi
holomorphic
catalyzing
kaolin
gcm
webb
phantoms
##haul
thermoelastic
ibd
cohorts
melanoma
segregated
sweeteners
pentacene
alleviating
metamorph
underestimation
hungry
micromach
pneumatic
proliferating
juveniles
village
faddeev
imperfections
##graphic
tentative
logarithmically
yoga
pyramidal
recalcitrant
recalcitrance
spindle
weapons
magnetocrystalline
lysozyme
catalysed
coactivator
berkeley
architects
møller
dzyal
secrecy
1β
ari
bafe
gent
gdm
ices
kaz
lov
lining
m3
nsp
ssm
selling
woman
##eff
##nals
##nuclear
##dust
##fi
##pings
##erce
##inements
##orbit
##iced
##icus
##rem
##ulent
##ulants
##amage
##agell
ori
spar
sponge
trs
traded
compilation
phlo
disassembly
shots
nev
queries
seat
plains
scission
##establish
appra
grape
ami
##plets
ard
arb
arte
nonpar
underne
##echnical
preadip
subpop
collections
limn
excre
secreting
##conduc
operon
monoun
electropl
142
windings
dimensionally
endotox
party
pressed
transmutation
polarised
veins
##oka
visits
grouping
colomb
hydrogenases
mitophagy
bald
##sibilities
handful
231
epit
photofrag
milli
summed
burgers
trehal
substation
machined
nanopores
pvc
luminance
archive
znse
relaxing
norwe
chromosomes
combustible
narrowband
dysfunctional
reinhard
alloyed
rossi
quenches
##iker
##zzi
collaborators
supplier
digester
susceptibilities
antennae
assigning
accepting
roadmap
arteri
gluonic
spacelike
##adaic
1955
dnn
tanaka
obliqu
codon
ovary
ucp2
nlc
commissioned
hbn
buoyant
symbols
deprived
fishery
murphy
weaned
scrap
dictate
tmdcs
posedness
prohibitively
dehydrated
antarctica
coercive
cabin
faeces
facultative
endosperm
##opropyl
cigar
invertebrate
photomultipliers
arrhythmia
interpolating
heterocyclic
crosslinked
radioisotope
kubo
ophthal
curcas
uncommon
circumferential
arachid
rovibrational
##orubicin
competit
underneath
norwegian
3m
3s
6h
aas
cgc
dsp
darc
daughter
eus
fow
gcc
hii
j1
jensen
pest
pten
pcd
q1
rps
sake
tut
uterine
vr
wte
##kal
##upt
##uins
##range
##n1
##tops
##gaps
##hine
##bles
##anus
##asian
##enton
##urbs
isometric
##usted
##idis
##umor
revenues
##sted
##peritoneal
restitution
##tha
chu
acted
##platin
trin
compass
dism
shim
interiors
intel
##ysm
##ria
##enders
##ipro
clp
##ario
##illo
notch
##ifice
amd
invoke
decipher
liang
approx
pai
soaring
comparably
maz
nanol
calcite
nucleoside
britt
freight
dimming
multiband
multiobjective
associates
protoplanetary
drifting
slugg
standalone
pathologic
integrin
##atalytic
186
influenza
causative
seeing
hydrogenic
hypo
liters
propylene
barb
funds
adipocyt
practiced
toolkit
hyperplasia
henceforth
##calor
psf
torref
intermediary
summing
mc3
tender
chromosomal
photosynthetically
aggregator
cathod
stochastically
##glu
##glie
entertain
merr
rolls
##wsns
swept
paints
cumulus
ventilated
bipartite
actinides
kiln
dbt
##oscopy
novae
forecasted
deteriorate
precipitating
disruptive
buckled
sawdust
biodegradability
patent
transcriptomic
inconsistency
swimmers
compressors
sessile
stirling
refrigerators
hypertrophic
eaten
schwartz
wkb
trimethyl
##voltage
citrus
awa
judg
extrapolating
settling
enforced
dendrites
##idinium
avalan
retailers
bariatric
deregulated
stratosphere
herbivores
cornea
pyridox
golgi
legitimate
ethnicity
cataract
intersubband
aeronau
paucity
dzyalosh
monounsaturated
sluggish
torrefaction
2k
2∆
3rd
bou
baf
cog
dung
ees
f0
fax
gone
hq
hxr
ja
lz
len
mast
nose
pals
pads
tere
v1
wy
wnt
yaw
±0
∆s
##nat
##sd
##dd
##l2
##lose
##bus
##−h
islets
astr
stating
reject
alger
coma
rests
chose
chile
##pls
trick
truck
dij
died
diatom
##ellae
incandes
##uned
clic
click
##asso
grs
##agner
carl
carotid
indoors
prescrib
assisting
arena
nonb
bival
gla
supp
commens
##generation
democr
##ovic
supervision
blun
worker
##uba
effectors
plastid
spinodal
##porter
localisation
organometallic
##anski
slater
161
realizes
integrations
topograph
##fficiently
continual
swi
landmark
faradaic
##iored
241
risen
weaken
pulsating
euph
guess
heterogeneities
dayl
cui
magnetopause
nutritious
polyhydroxy
polyacryl
accumulator
specialists
accesses
telepar
excesses
##coe
pbpb
admission
immunological
cnf
biofield
##berger
##omyosin
osteoc
scheduler
rhomb
hfo
tolerated
manipulator
graduate
electrostatics
unsuper
##ukh
ssbs
krill
octahedra
gateway
japonic
prominence
##feb
arrivals
phytate
snowpack
seasonality
ferroelectrics
executive
uhi
proceeding
compromises
taxonomic
ppar␣
##oea
hypertensive
listeners
steepening
county
fpgas
competent
competence
furnaces
unbro
rendered
repeatability
flagellar
flagella
neurotransmission
crashworthiness
ponderomotive
overestimate
centrifug
##atrick
electromagnetically
njl
skewed
huntington
subdivid
superheavy
photocathode
microprocessor
##aryngeal
bcaa
preconditioning
copyright
hematopoietic
homotopy
rheumatoid
percentile
##infrared
teleparallel
1ϫ
1st
6j
cbs
dick
denti
ez
grip
hide
hern
hca
jim
jung
ligh
lich
mie
riv
s4
ucl
vine
vev
##oot
##jug
##junctions
##dal
##fat
##fts
##held
##bes
##wl
##79
##tiers
##tight
##trained
##lea
##leth
##urability
##emp
energyc
stall
##otrophy
##aming
alve
albert
##perform
ory
tren
dips
quoted
seb
eva
##ometrically
192
1940
simon
undist
decode
deciding
decoder
poster
curl
speci
cald
fept
nucleosomes
moire
defibrill
longstanding
sinking
##aware
threefold
146
148
bandgaps
allowable
greece
minimising
periodical
matth
ern
angstrom
##ronectin
anything
corresponded
256
farther
##etized
##ibrio
epi
quasilinear
−11
annulus
wavelets
burdens
mesophilic
asperg
thickening
cai
magnetocaloric
273
condense
neurogen
290
admissible
000000
90°
revival
segmental
glutamic
inhal
lepto
hexokinase
tetrap
ceiling
##ulla
htc
ccm
resolves
responded
vicinal
lysosome
restorations
epiderm
oligomerization
bpm
bipyr
mbar
accommodated
polypyr
informational
rmse
dpp
quadrupolar
osmol
instantaneously
##eletons
plei
palmitic
polysulf
pedest
reinforcements
##panic
nanofil
phyla
spraying
anchored
worthwhile
intracere
rhythmic
imprinted
biopsies
heuristics
photosystems
ranks
bicarbonate
saccharification
buffers
abraham
mannose
threads
uncontrollable
ontology
corporation
takah
ambiguities
##pinephrine
gyrokinetic
coleman
danish
micrornas
assimilated
thermocline
territories
signi®c
doxorubicin
administrative
clathrate
nematodes
multiferroic
flocculation
subfamily
##translational
butyric
periplasmic
immunosup
legendre
eikonal
norepinephrine
peninsula
larmor
unsupervised
011
1t
4th
dbi
eucl
foci
fss
gip
keen
licoo
mall
nab
nets
ots
pim
pens
qt
sro
sase
sxr
wagner
##rafts
##nem
##sines
##lonal
##wig
thiored
##rov
##ican
##aci
##olv
##omized
##ulse
##imals
##odi
beer
styrene
rewards
comments
deacetyl
chew
spons
spanned
trail
phage
dihydro
shu
imt
incap
apolip
2035
coo
##rik
##aryl
##assisted
grace
graz
methoxy
analges
nonad
nonco
nonclassical
##ounting
##athi
gliding
crit
speculative
conclusively
radiometer
insult
superb
blg
##iquid
##herford
##epitax
longitude
##ochromic
confidential
bodily
wavevector
149
excitotoxicity
schneider
schrieffer
experimentalists
##exchange
168
approximates
ecal
broglie
rotator
silane
phosphatases
intrusive
adipogenic
pulsation
euro
halides
hyperons
hyperelastic
substations
mmp
brainstem
ghgs
cardio
psa
nanofl
##aminase
##bank
logs
mcf
lithiation
ppi
acetonitrile
recommends
latex
sdw
bills
recombine
identically
wait
440
granite
liberal
mosaic
##yleth
stopover
paradigmatic
analyticity
painting
magell
calling
imbalanced
ketosis
dlc
recipe
bifacial
parametrizations
cyg
supergiant
chandrase
overexpressing
unwinding
town
cgro
##olinium
niches
mccl
nanofiber
destabilizing
bondi
scanners
photosensitizers
electroluminescent
embol
##0817
anesthesia
keplerian
arrhythmias
reprocessing
aerogels
rutherford
miniboone
diffeomorphism
ourselves
crosssection
encephalopathy
plagued
multifractal
chameleon
bootstrap
##oglutarate
brachytherapy
incandescent
unbroken
subdivided
2des
4u
430
5°c
680
award
bk
bch
bart
dunc
fts
fenton
gop
hcn
iacts
jam
kul
kane
ler
mong
msp
nal
pew
sul
sider
yba
##400
##ouling
##vit
##cut
##rite
##gd
##sl
##sych
##jee
##density
##fed
##faction
##production
tha
##tie
forging
bees
##sized
chak
tril
##romedial
phy
##oretic
interoper
metro
intend
washed
##aked
pert
perse
transversely
cloth
1038
opi
##ollinear
bioluminescence
bianch
smr
becs
paee
crest
calmod
newbor
complements
superpart
curricul
brite
##cone
exploding
multiprocess
associating
monovalent
coupler
lasinio
slack
integrators
##naj
partur
periodon
priming
eras
stressor
circles
containers
healthier
brood
baltic
lipopolys
betaine
groundstate
certification
##archae
nmda
representatives
guts
guang
doesn
internalization
cauc
cancerous
magnetospheres
2009a
milieu
##rington
exercising
009
concert
summers
classifications
mcnp
aminotransferase
undergrad
benj
372
supportive
revol
glut1
dropping
disturbing
cfp
dryer
##oxidans
##transport
tetrahyd
dosimetric
mdp
overlay
southward
xrt
proportionally
lumped
cummings
financing
sfg
apartment
nanorod
aperiod
bbn
capsul
deflected
mismatches
convexity
herbaceous
overexpressed
bdt
episodic
impulses
woos
##khar
##volume
chlamy
landsl
nationally
laptops
broadcasting
2mass
hemicelluloses
perforation
marshall
ysos
annihilations
rationally
pmsg
spectroscopically
bracket
tropospheric
heterodimer
endeavor
entrepreneurship
triflu
nqr
foreseeable
congenital
struggle
preexisting
uninterrupted
roche
relieve
prosperity
cilia
moriya
3t3
beauty
boussines
##negative
fodder
zenith
##engineering
slovak
intraband
peanut
endocannabinoid
enthus
mitchell
euclid
newborns
curriculum
boussinesq
1p
ati
auction
batio
cbl
dump
ebs
fdi
feld
fcn
gaz
hag
lsm
mend
pade
qcp
tms
##vanic
##ventricular
##uer
##bg
##x10
##±2
##onous
##tids
##alge
##rebp
##acle
##olite
##olateral
##ulis
##ulous
forem
##vey
stoner
reid
reich
##sification
##star
whist
resusc
##agl
chin
chic
cholec
spd
##ayashi
##oux
##izal
prest
##ibacter
##apillary
imb
##oglu
aph
effi
interrelations
adl
metaph
impetus
hass
leh
cob
plung
relatives
flapping
##acetic
##arius
##ghz
1920
##phosphate
manets
##eweg
deconstr
overnight
equiv
speciation
##ptons
thermography
thermophysical
blobs
firmic
freed
descending
motile
singles
##osphates
152
##ossal
optimistic
furf
##ribed
schiff
dof
afferent
occurr
semiqu
173
swell
##ronine
antiparticle
tunka
figs
222
intras
quasilocal
fabry
polych
flexibly
ghs
##agraph
marcus
maldi
histopath
sidewall
myers
favours
dmrg
msu
cpg
cloudy
##heses
astrophys
triiod
denatured
normoxic
##ikawa
pyrene
nsf
shallower
fluorinated
syndromes
tennis
leaky
sulfuric
formerly
mufa
ellips
middleware
thorne
##170817
##alcoh
tractor
mbh
##atonin
1−4
warning
##opathies
hartmann
vulnerabilities
pwne
##dehydes
disrupts
hmf
cisplatin
electrocatalyst
ferroelectricity
bdnf
incompletely
casscf
homologs
navig
malignancies
sirt3
lanthanum
bioreactor
glycosylation
quinn
rhizosphere
nicely
microfluidics
ventromedial
fibrils
blooms
dawn
##oblastoma
washington
cellulolytic
bottle
retrograde
gadolinium
jarzynski
thermoregulatory
wisdom
eucal
pulverized
religious
##osphorylation
polydispersity
oligonucleotides
prenatal
autoregressive
combustor
ancestral
sommerfeld
caregivers
garnered
cathodoluminescence
aspergillus
pedestal
bianchi
benjamin
woosley
foremost
firmicutes
3þ
6s
btz
cater
d4
dz
fern
ges
jov
j17
jona
kad
kort
kitch
nino
nuclides
ply
rhes
tps
tire
##ei
##oquinone
##kv
##kol
##face
##yph
##tide
##aromatic
##enth
##omod
##owers
##ilt
##uman
retransm
alike
whales
##ocardi
##ocarcin
spc
spic
spoil
trx
triaz
##optical
strikes
205
pld
scand
unipolar
flames
etal
10−
19th
gravel
##indler
abmd
photost
##ivorous
thermoneutr
commons
inset
##ovani
proteolysis
capped
119
metabolomic
139
138
1300
159
##ycline
serr
singlets
##rossing
microvascular
microelectromechanical
starved
infalling
dozens
167
fatness
##atalyst
primaries
shortened
airfoil
internationally
215
bull
photoabsorption
##ascale
urry
mesenteric
breakers
coverages
errone
polyimide
salam
##nea
2005a
nanoelectronic
##ashberg
316
melatonin
counterions
##ofr
mrf
srf
specifies
vegetarian
nutritionally
cooperativity
normative
wrist
hopkins
islanding
mdd
##oplasm
sanders
##proton
planckian
intersystem
metastability
striped
freshly
familial
prolonging
shields
ketogenic
reformulated
warp
justice
progeny
luo
ybco
nonspecific
coiled
quintessential
bimolecular
crowding
routines
judicious
blende
rectifying
unexplained
babar
pearl
qsos
sticking
partitions
kenya
clarke
fukushima
multistep
pyrophosphate
scotland
abnormally
abbott
flammable
refurbishment
diapause
planetesimals
macroscale
icosahedral
photoanode
##osilicate
alamos
imparted
birefringence
cropland
gaugino
denoising
reinhardtii
avalanches
terephthal
incapable
duncan
calmodulin
a5
aorta
ccc
census
dj
dated
dating
eec
ese
eso
eia
eaves
fk
fol
fese
hba
ji
kamiokande
m5
nz
nsi
och
px
pud
pins
pct
qr
roh
tort
tep
ux
wen
woven
xin
xia
yah
ºc
∼5
##eau
##vas
##cor
##ressed
##tc
##alas
##anen
##analy
##acious
##omol
##ulmonary
##uccess
forc
##idia
##imb
anod
anns
alga
##vert
##tini
resorting
##agi
acuity
##ocarbon
compiler
dieting
##ifiers
##anded
highresolution
apatite
unsc
unrec
recast
floral
transaction
emc
##phe
notation
nonmon
microl
concise
maj
nanometric
outp
supervis
superradi
bray
multiuser
##adeh
sinensis
141
geography
costa
backhaul
humic
humming
dieth
darkness
shortcoming
##lished
visually
mitogen
lipogenic
silva
handheld
hardened
248
solidified
232
−12
labile
axonal
wallace
##rett
fixes
##ompression
275
copious
candida
torn
310
pcbm
uvb
nih
mca
##anka
analogies
pico
cnc
hertz
donating
##ruh
dysregulated
wilc
bosonization
cfu
watts
watching
virtuality
433
faulty
linol
docos
venus
penic
impeded
##domain
clarifying
paying
aromaticity
ventral
neuropsych
steeply
thiophene
floods
disappeared
h2o
jeopard
disciplinary
bifurcations
awake
multiplexed
cryptography
homogenized
onsite
roman
occasional
consolidated
nordic
pamela
sublattices
splice
saturating
photodiode
estuaries
##ypsin
royal
tethered
disentang
baffle
microseconds
impregnated
unobserved
misfit
##odontic
symbionts
anaesth
emulsif
edlcs
sparsity
emanating
amputation
umbrella
ascorbic
flicker
intertwined
sachs
suckling
inhalation
chandrasekhar
opioid
undergraduate
furfural
occurrences
9−
font
fighting
hν
kun
koch
lup
mam
nust
rio
sau
sorted
t0
tsp
vgf
vla
veto
zeld
##uation
##nell
##mor
##gt
##dv
##dam
##fd
##lon
##pun
##hm
##−m
##worm
##alf
##atp
toc
##olab
##urning
##ulina
##uced
##osulf
beats
stam
reple
deer
atcc
orifice
##quality
##ocarb
spore
spear
dian
shaking
imrt
sealed
pls
scm
flop
clamped
clutch
heus
emf
##atient
signed
##ynes
biophysics
magnification
preheating
calvin
##utral
soaking
agitation
commut
completing
nanogener
##ublished
bruce
monosaccharides
##ocking
organisations
microcalor
starbursts
memr
geology
advis
lasts
169
filed
populate
containment
offprint
antip
211
cm2
fourteen
esss
propeller
fertile
nonloc
##heological
236
residuals
axon
vacc
macular
teh
homoe
2008a
flexor
saliva
malonyl
2003a
replacements
hortic
cytosine
conforming
attractiveness
questionable
##coin
pbte
tubers
supplementing
surrounds
thirdly
cng
platoon
roughage
letters
##ocalization
arcmin
compensates
brightening
reinforce
lignite
ignited
unsuccess
zea
ohm
inelasticity
manifestly
##oprote
prominently
osteopenia
streak
threatened
ncds
cyclase
clarity
ffas
lc3
benchmarked
clockwise
frontiers
dispatching
assayed
docked
biosorption
discriminant
coloured
gears
##exciton
cocoon
crowded
1064
mountainous
biosensing
pgc1
pevs
optomechanical
gpcr
##okinin
breeders
biorefineries
unimolecular
toll
cochlea
skewness
parsec
substituent
nanophotonics
nyquist
photoinhibition
bisphosph
centimeter
interrupted
shelter
willingness
mussel
subleading
smeared
##diffusion
modifiable
agglomerates
quasistatic
catastrophe
capillaries
cardioversion
unmodified
ancestor
energyefficient
lifepo
diaphragm
magnetotail
procurement
cessation
revived
##performance
nustar
2σ
8π
arous
boss
bpa
bert
cca
ccp
dad
gul
hug
hitting
js
nay
ough
pork
pyc
pws
qhe
rda
sop
sanche
tighter
waking
wonder
xte
μj
##iffer
##rates
##td
##gy
##bf
##xi
##wick
##zan
##qol
thiaz
##tists
##enum
##ndes
##roplasty
##econ
##olo
##omotor
##urpose
entit
##employ
##igl
energization
##oda
exafs
##amn
##aman
##amides
alp
##ags
##thy
chf
chair
orch
spo
weed
pras
dieti
disequilibrium
incred
metad
##alloy
cooh
relics
claus
##ometres
desy
emg
twitch
timest
abe
cellobi
overe
micellar
preformed
##athan
potable
thermosphere
fe3
verl
##ymethyl
demon
insensitivity
##ucleon
hydrom
electrop
proposition
##copyr
serpen
infall
dozen
affili
realistically
minimisation
1700
##printing
couns
circulations
airtight
ecg
snare
ferri
ferritic
fibon
phosphorescent
greenland
501
postm
##ahy
nanoscience
thoughts
ghsr
hotel
condensing
cytometry
naa
dai
neutralinos
cd36
thirteen
ambulatory
pbd
##operatively
mram
icu
elevate
wales
deplete
012
glutam
mineralog
silicates
neurovascular
##blad
interspecies
470
safegu
noncons
breastfeeding
omitted
cemented
fairness
epitaxially
benzyl
conjectures
neuropathy
transfection
tnt
bifunctional
cumulant
deflections
textbooks
pedagog
methanation
distillers
##ibrillar
##holm
passivity
##quettes
esterification
padovani
leverages
multivalent
inertness
arthrop
hopefully
##namara
acryl
inventories
nodule
siber
nursery
##hardness
depicts
##processing
kdv
recurring
overturning
opinions
propellants
##andez
antineutrinos
abandon
unveiled
hessian
intentional
asteroid
endeav
aspirin
seventy
dissolve
symbiont
florida
eliashberg
cgmp
immunohistochemistry
##sheet
deconv
uninten
caribbean
bacteroidetes
admixture
superparamagnetic
heparin
hygroscopic
freundlich
##othyronine
excreta
trehalose
leptoquark
parturition
##ofruct
5s
6d
aox
cts
eor
fever
gfr
hell
hps
hoy
hde
jans
kos
lpa
nand
oyster
pph
ral
sage
tfa
vls
wiring
##vast
##iency
##aid
##tan
##dg
##flex
inqu
inception
##atse
##atell
##atural
android
##itate
##ittal
##eco
##trc
##olly
##ometh
##etamine
proop
##emis
##usa
##terp
##terone
##odend
asch
exo
exud
##amph
alma
chs
##pling
##ocentric
spare
##opolymer
competes
phi
dihedral
disab
syrup
##ials
ade
##acted
seams
unco
unilateral
unruh
deskt
grab
##istant
biologists
bivo
becker
feo
demo
discour
lima
fluent
distributing
brink
bricks
##yled
multid
##parable
atomization
microhardness
sche
##axin
realizable
subsidence
secondaries
phenology
keys
constellation
symmetrically
deleted
##ophage
graphically
212
facial
intral
##heuristic
arrange
siem
pollination
flexion
exercised
uva
dispersionless
mcnamara
dmfc
pseudok
passages
microstrip
router
diffused
survives
acetabular
015
motorc
glut4
osteoblast
piper
mlc
evaporating
masl
nitrification
haas
haemat
calibrations
ribonucle
institutes
dsbs
discretis
lorenz
cubes
penn
intelligently
cultivar
feedstuffs
muonic
escapes
hrtem
ncx
99m
photodamage
terminology
dehydrogenases
lmxbs
1954
microcrack
polymorphic
sensitizing
imperme
rmf
pretreated
meteorology
gastroc
castor
metaheuristic
pooled
sirna
vlbi
ferrim
wheelchair
decelerating
angiography
hepatocyte
uncharged
retarding
photodetachment
trout
exerting
lymphoma
mentioning
sparked
hurric
mexican
zirconium
villages
sacrificial
irreversibly
appreciably
sarcoplasmic
digestate
teleph
confounders
corroborate
geopoli
geopolymer
diffracted
transceivers
stanford
centimeters
fqhe
carnot
lutein
climatological
impregnation
chalcopyr
palmitoyl
incidents
clumpy
antitumor
snapshots
tibetan
spermatozoa
pnictides
appeal
cyclodextrin
annotated
amphiphilic
ostriker
reluctance
brittleness
takahashi
magellanic
aperiodic
eavesdrop
linolenic
heusler
buc
ctr
fellow
gamet
hog
kcl
killed
l3
laughlin
msm
nϭ
natal
oes
pits
pns
paves
qn
s10
ties
tones
vend
vick
wess
wong
xie
znaj
∼20
##v2
##nick
##melt
##1−x
##dar
##yama
##hex
##69
##−2
##witch
##qq
thd
thal
throw
##arter
##ecl
##economy
##ason
##isd
##tria
##urin
##eton
enso
contracted
##osition
fork
asr
##amed
##amino
alber
alps
##abit
whale
##utz
dewater
dehal
##opolymers
pherom
diacylglycerol
shg
##ellini
parenchym
##ando
##igned
flaw
cloning
opvs
##atized
amper
indis
biota
posing
##flagell
butadiene
radiators
radiometric
commin
insectic
##ameter
nucleophilic
##rels
##ishi
protozoa
drifts
sinter
excitability
infeasible
slender
162
##issance
greisen
activations
semic
188
endang
endpoints
scatters
deliber
##ibrils
antiparticles
colossal
cmbr
refu
refinements
sustainably
lipases
ferre
ferroc
lengthening
vaccine
##arman
macrop
postulates
cutic
nanostructuring
books
sectoral
mote
linesh
naively
superstructure
ethane
irradiating
cdma
vectorial
##osystems
ligation
narr
detectability
catac
013
egf
compensator
restores
mammography
solvothermal
tolerances
deformability
recyclable
outermost
bandwidths
025
misleading
stiffening
adjusts
gw170817
summarised
impedes
ip6
filamentary
##dhf
##affe
oligomer
uncondi
##anoic
gcms
aaa
translationally
textbook
microparticles
shoots
kvp
nanofabrication
blastoc
lpm
sulphide
monoclonal
rgb
intergran
gnr
plaques
tachyonic
igbt
lymphocyte
electrospun
epidemiologic
miscibility
multivariable
amphip
jacobs
nurses
##hardt
##works
brackish
decomposing
streptococcus
syntrophic
worsening
prismatic
undetectable
##pyruvate
multistage
weapon
blanket
climatology
repressor
hydrolase
hydrolases
salvage
ratchet
shibata
weibull
hamsters
aodv
diarrhea
neutrophils
valorization
pedestrian
ganglion
microclimate
microquasars
##pectrum
kirchhoff
bibli
selfconsistent
apolipoprotein
resuscitation
terephthalate
zeldovich
fibonacci
##ophageal
pseudokn
intergranular
1es
8−
bum
cpl
ccl
dob
deng
dino
dpc
dgp
fum
fsi
feng
ileum
lcd
lrs
m⊙
mth
murr
m87
ntp
oj
paving
punct
qps
qct
rack
riley
sos
stil
tma
zc
δv
∼50
##mia
##fy
##lm
##list
##hu
##bec
##wan
##2cu
##qcd
thunder
##oniae
##inogen
inse
##arial
##rod
##itches
##ecor
##olase
##omnia
##oson
prod
forear
##owa
##idone
##imi
##terase
energized
asper
reinde
##sio
##utta
chill
chiller
##planes
orn
triton
phd
priest
dihyd
##ibs
##ibular
##apopt
sha
paraple
##oreal
api
2022
interception
intent
sco
pertain
mei
flim
flap
##soft
grams
##poses
notes
liv
lih
phototrophic
mica
micromechanical
smol
polished
##flies
radix
radiates
insb
discourse
calculable
nucleate
synov
bandpass
infn
##iana
affir
phenanth
antidiabetic
ecf
stead
initialization
##ammatic
greenhouses
referenced
quasim
conditioners
openings
wiener
viewpoints
exposes
chemolith
pvp
2007a
ghana
deepest
nanoem
metallicities
blockchain
supersaturation
implicate
astroc
##force
ptp1
mcke
federation
fills
camel
microspor
delaying
ramping
hematite
rigor
begelman
casual
alignments
cereb
cerebro
manipulators
anaerobically
##glut
dsdna
htl
recoverable
inferences
zheng
coincid
amorphization
permeate
sprague
sphaler
debonding
interconversion
autophagosome
victor
stripped
submod
inspiral
executing
biped
repaired
kilometer
dgdr
multifrag
##oscope
lagoon
departments
undertaking
rmt
cumulants
collimators
oblate
russ
acyltransferase
##utyric
fesem
immobil
igfbp
subtype
jejun
attractors
gnrh
stirred
hypersurfaces
prostheses
##integrated
stomata
##ophilus
mysteries
gonadal
shrinks
paradoxically
prefers
unpublished
wbans
vigorously
nicotine
prototyping
corticoster
##standard
obstruction
reconstituted
mushrooms
##ampling
george
nanophotonic
##propag
sorbent
vibro
##anteus
ginseng
skipping
troubles
vcsel
titration
olivine
rkky
##measures
physisorption
allotropes
elephant
dechlor
lovelock
shakura
arachidonic
dzyaloshinskii
epidermis
polysulfides
unsuccessful
sanchez
##atsepin
znajek
reindeer
2r
5p
caught
eisen
fh
gur
gyn
gns
ik
jm
katz
l4
lil
lma
lapse
o3
oat
pps
raz
tsi
tgr
yy
yig
ϳ2
##core
##nc
##stry
##1c
##lan
##page
##haw
##bel
##inov
##edullary
##atability
##aru
##ask
##astric
##actively
##etts
asd
aston
reforms
aldehydes
##statically
##ffin
##sea
acl
##opulmonary
phasing
shine
parabol
inconc
##orton
##unting
scd
peril
perias
##roup
unatt
mee
##ipel
clue
##posited
amazing
##icient
decont
##auss
##obia
##deron
fry
craw
soap
subch
subpro
##alski
secre
##copic
researching
drs
occlud
##ordant
integers
peeling
sympos
subsonic
phenols
backfill
184
183
swcnt
resonating
crossbar
##aug
widening
##ophosphate
turbid
25°c
keying
meantime
framed
facies
roi
corruption
extrater
##azz
bullet
amplifying
downhill
actomyosin
−13
reflux
scenes
halper
posttranslational
robert
persisted
convol
##ahan
266
pasta
permissible
histones
glycan
##anolamine
socs
pcb
melted
extremities
astrop
dmc
countermeasures
fasn
srm
progressing
##omicrob
peters
viscosities
denatur
hypothesised
comprehension
nanomechanical
computerized
pyrite
devoid
supercomplex
mtjs
ruiz
hierarchically
zeaxanthin
tetrachlor
##uvant
discreteness
overlayer
bhatt
northward
sprint
##frame
dyeing
leaks
anticor
1987a
embritt
##itrate
pnc
spectrometric
1953
terrace
excludes
##yptus
pygm
ducts
tdma
rbcs
mismatched
polysulfide
cytochromes
hospitalization
acylated
##acceler
neonate
bipolaron
brilliance
rounds
percutaneous
photosensitive
irregularities
bunching
compressing
civilian
david
##olinergic
enlarge
wolfe
ascending
exemplary
crushed
lucifer
xxz
teacher
precedes
henry
survivability
sagittal
tentatively
phycocyanin
phosphoenol
##optera
hectare
##emetry
saxs
neuroscience
exciplexes
escalating
nobel
##carnitine
hudson
enumeration
yarn
shopping
demagnetization
stenosis
indefinitely
enlargement
tocopherol
##siloxane
editing
##itochondrial
microglia
nonvolatile
dentistry
thioredoxin
interoperability
##alcoholic
overeating
proopiomelanocortin
gastrocnem
##apoptotic
ptp1b
inconclusive
2°c
4a
5σ
aom
bour
bsc
bender
cau
diction
eem
fels
ficti
goss
greek
kow
keld
liz
lend
lanes
mum
mop
nur
nct
nils
tuc
tds
tdhf
νe
##eo
##iary
##iosity
##cription
##aedic
##aqueous
##r2
##rick
##met
##lance
##lie
##lier
##zel
##2c
##¯u
thall
##onential
##enstein
##algae
ingen
inactivated
##atrol
##itons
##aca
##osts
##lysm
proges
ascent
antig
##stones
##adf
choline
checks
##ocer
compose
suit
prize
shm
strut
##ellium
##charg
apob
apoe
adcs
##aternal
electrified
unqu
meh
recuper
flan
flake
##encil
formats
invas
ark
arrow
##cessively
nonalcoholic
##portant
overr
smgs
charles
scalings
noaa
subtracted
vern
mays
outbre
manybody
blan
blob
1232
securing
brace
moh
monot
plastids
1550
optimising
##intu
spinors
##ternoon
carbonates
composing
geologic
peeb
slide
164
realisation
##oyd
189
187
globule
171
crossbred
centa
##odef
obesogenic
polaronic
turbidity
cmp
refeeding
lipophilic
226
bioimaging
corrid
oilseed
bulbs
velocimetry
##ographically
photois
annex
wirelessly
hypertr
burner
##ahex
##ompact
runge
##apsules
##hyper
isolating
2004a
008
myocyte
derivations
niti
reacted
counterbal
mrad
srt
miy
##igration
upto
acetoacetate
##gestive
##zek
ischaemic
renormalisation
predetermined
sterols
hexap
ndp
npv
tablet
reverses
responders
##exponential
##domonas
interferes
microscopically
bitcoin
nhanes
cyclin
snowmelt
oligotrophic
oligodend
sfrs
terror
##ozo
kilogram
statcom
multifrequency
accommodates
thiamin
parametrically
tonne
inequivalent
morbidities
ultracapac
nlr
journals
alfvenic
vmn
stereoscopic
plaquette
underestimates
hydrolyze
refrigerants
nakamura
eaters
telecom
phosphorylates
viscoelasticity
winters
unbalance
bromine
yttria
exacerbate
warrant
predispose
suprath
thermostats
harbors
ostwald
reciprocity
pyramid
delineate
suzuki
beacons
nematode
##kpatrick
eclipse
advertising
hohl
polyelectrolyte
superalloys
kobayashi
battlefield
legislative
bureau
pacemaker
##lycaemia
##enclature
nanoplat
voyager
amputees
phloem
preadipocytes
rhombohedral
lipopolysaccharide
chlamydomonas
entitled
cataclysm
multifragmentation
extraterrestrial
gastrocnemius
fictitious
peebles
cataclysmic
5m
510
bends
cnd
cue
cct
c14
fuc
h3
hin
idi
ibr
jj
keller
p450
rie
s5
sot
saus
siv
s00
svd
tk
yi
zd
µj
δt
ϳ0
##eased
##oagulation
##300
##hetic
##b3
##5a
thyr
##edes
##nduced
##isi
##isal
##isers
isa
ish
prox
##odym
##odopsin
asb
asic
exquisite
stal
##otted
reass
reusing
allyl
##irected
##irub
##sizing
##veratrol
byst
##adate
##agons
##seen
ch3
atgl
spiro
trad
##oprecipitation
pho
dialog
##applic
##ogaster
els
elf
conspecific
interpersonal
##ried
plentif
perot
unpro
##ensory
flatter
hek
##ionizing
opal
##phosph
simpson
surm
carroll
assists
abram
abrik
##veloped
nonab
nonstandard
underutil
biologic
##oley
soh
subgap
feb
presentations
collateral
upwards
verifies
##ropathy
dirty
11−
singl
afternoon
electrostatically
extant
bounding
geobacter
renyi
166
afflic
backed
##icked
swall
constancy
angel
pressureless
engulf
alternately
interfacing
barc
connective
skins
skeletons
hardy
biotin
corrup
chargino
233
depict
blackouts
guard
channeled
hyperc
lasted
homozygous
magnetometer
faba
names
virg
histograms
initiator
toroid
metallization
##owska
recognizes
pcbs
##background
325
featureless
mcmc
paralleled
simplistic
tubules
ppv
sulfon
hubs
donax
2017a
diagrammatic
017
flavours
popularly
hoped
aligning
orthosis
dilation
attenuates
attenuating
hexagon
##ubbing
digesters
lensed
sandia
bai
ivr
coinciding
gwp
prospectively
##anthine
impediment
doubts
firewood
antioxidative
nh3
restorative
anthropometry
cyclones
photodis
bathyme
strokes
documentation
mvpa
vulcan
conveying
nervosa
covariates
solubles
dgat
nbd
glycerin
fulfills
personalized
austria
tanz
melanogaster
rbf
echocardi
bioconversion
entrained
nomenclature
destroys
emotion
brilliant
herbage
colleges
circumstance
reperto
gnrs
vmi
vmh
retrofitted
deletions
densit
mycobacterium
oncology
repeaters
echoes
credible
2−x
destabilize
wintering
quiescence
prefabricated
pneumoniae
sunshine
agroec
detergents
caco
tauri
stroma
chrys
dawley
leprb
##benzene
dumbb
ekman
tannins
hemorrhagic
[...]
